// Temperature Prediction Model - TinyML
// Auto-generated file - Do not edit manually
// Model trained on AHT20 + BMP280 sensor data

#ifndef TEMPERATURE_MODEL_H
#define TEMPERATURE_MODEL_H

const unsigned char temperature_model[] = {
  0x1c, 0x00, 0x00, 0x00, 0x54, 0x46, 0x4c, 0x33, 0x14, 0x00, 0x20, 0x00, 
  0x1c, 0x00, 0x18, 0x00, 0x14, 0x00, 0x10, 0x00, 0x0c, 0x00, 0x00, 0x00, 
  0x08, 0x00, 0x04, 0x00, 0x14, 0x00, 0x00, 0x00, 0x1c, 0x00, 0x00, 0x00, 
  0x8c, 0x00, 0x00, 0x00, 0xe4, 0x00, 0x00, 0x00, 0xe0, 0x13, 0x00, 0x00, 
  0xf0, 0x13, 0x00, 0x00, 0xb4, 0x21, 0x00, 0x00, 0x03, 0x00, 0x00, 0x00, 
  0x01, 0x00, 0x00, 0x00, 0x04, 0x00, 0x00, 0x00, 0x76, 0xea, 0xff, 0xff, 
  0x0c, 0x00, 0x00, 0x00, 0x1c, 0x00, 0x00, 0x00, 0x3c, 0x00, 0x00, 0x00, 
  0x0f, 0x00, 0x00, 0x00, 0x73, 0x65, 0x72, 0x76, 0x69, 0x6e, 0x67, 0x5f, 
  0x64, 0x65, 0x66, 0x61, 0x75, 0x6c, 0x74, 0x00, 0x01, 0x00, 0x00, 0x00, 
  0x04, 0x00, 0x00, 0x00, 0x90, 0xff, 0xff, 0xff, 0x15, 0x00, 0x00, 0x00, 
  0x04, 0x00, 0x00, 0x00, 0x08, 0x00, 0x00, 0x00, 0x6f, 0x75, 0x74, 0x70, 
  0x75, 0x74, 0x5f, 0x30, 0x00, 0x00, 0x00, 0x00, 0x01, 0x00, 0x00, 0x00, 
  0x04, 0x00, 0x00, 0x00, 0xa6, 0xec, 0xff, 0xff, 0x04, 0x00, 0x00, 0x00, 
  0x0c, 0x00, 0x00, 0x00, 0x6b, 0x65, 0x72, 0x61, 0x73, 0x5f, 0x74, 0x65, 
  0x6e, 0x73, 0x6f, 0x72, 0x00, 0x00, 0x00, 0x00, 0x02, 0x00, 0x00, 0x00, 
  0x34, 0x00, 0x00, 0x00, 0x04, 0x00, 0x00, 0x00, 0xdc, 0xff, 0xff, 0xff, 
  0x18, 0x00, 0x00, 0x00, 0x04, 0x00, 0x00, 0x00, 0x13, 0x00, 0x00, 0x00, 
  0x43, 0x4f, 0x4e, 0x56, 0x45, 0x52, 0x53, 0x49, 0x4f, 0x4e, 0x5f, 0x4d, 
  0x45, 0x54, 0x41, 0x44, 0x41, 0x54, 0x41, 0x00, 0x08, 0x00, 0x0c, 0x00, 
  0x08, 0x00, 0x04, 0x00, 0x08, 0x00, 0x00, 0x00, 0x17, 0x00, 0x00, 0x00, 
  0x04, 0x00, 0x00, 0x00, 0x13, 0x00, 0x00, 0x00, 0x6d, 0x69, 0x6e, 0x5f, 
  0x72, 0x75, 0x6e, 0x74, 0x69, 0x6d, 0x65, 0x5f, 0x76, 0x65, 0x72, 0x73, 
  0x69, 0x6f, 0x6e, 0x00, 0x19, 0x00, 0x00, 0x00, 0xf8, 0x12, 0x00, 0x00, 
  0xf0, 0x12, 0x00, 0x00, 0xdc, 0x12, 0x00, 0x00, 0xc0, 0x12, 0x00, 0x00, 
  0xb0, 0x0c, 0x00, 0x00, 0x80, 0x0b, 0x00, 0x00, 0xf0, 0x06, 0x00, 0x00, 
  0x80, 0x06, 0x00, 0x00, 0x30, 0x06, 0x00, 0x00, 0xc0, 0x05, 0x00, 0x00, 
  0xa4, 0x05, 0x00, 0x00, 0x88, 0x05, 0x00, 0x00, 0x6c, 0x05, 0x00, 0x00, 
  0xdc, 0x00, 0x00, 0x00, 0xd4, 0x00, 0x00, 0x00, 0xcc, 0x00, 0x00, 0x00, 
  0xc4, 0x00, 0x00, 0x00, 0xbc, 0x00, 0x00, 0x00, 0xb4, 0x00, 0x00, 0x00, 
  0xac, 0x00, 0x00, 0x00, 0xa4, 0x00, 0x00, 0x00, 0x9c, 0x00, 0x00, 0x00, 
  0x94, 0x00, 0x00, 0x00, 0x74, 0x00, 0x00, 0x00, 0x04, 0x00, 0x00, 0x00, 
  0x86, 0xed, 0xff, 0xff, 0x04, 0x00, 0x00, 0x00, 0x60, 0x00, 0x00, 0x00, 
  0x0c, 0x00, 0x00, 0x00, 0x08, 0x00, 0x0e, 0x00, 0x08, 0x00, 0x04, 0x00, 
  0x08, 0x00, 0x00, 0x00, 0x10, 0x00, 0x00, 0x00, 0x28, 0x00, 0x00, 0x00, 
  0x00, 0x00, 0x06, 0x00, 0x08, 0x00, 0x04, 0x00, 0x06, 0x00, 0x00, 0x00, 
  0x04, 0x00, 0x00, 0x00, 0x01, 0x00, 0x00, 0x00, 0xea, 0x03, 0x00, 0x00, 
  0x0c, 0x00, 0x18, 0x00, 0x14, 0x00, 0x10, 0x00, 0x0c, 0x00, 0x04, 0x00, 
  0x0c, 0x00, 0x00, 0x00, 0xb6, 0xf2, 0x28, 0x9e, 0x7d, 0x70, 0x4f, 0x14, 
  0x02, 0x00, 0x00, 0x00, 0x02, 0x00, 0x00, 0x00, 0x04, 0x00, 0x00, 0x00, 
  0x06, 0x00, 0x00, 0x00, 0x32, 0x2e, 0x32, 0x30, 0x2e, 0x30, 0x00, 0x00, 
  0xf2, 0xed, 0xff, 0xff, 0x04, 0x00, 0x00, 0x00, 0x10, 0x00, 0x00, 0x00, 
  0x32, 0x2e, 0x34, 0x2e, 0x30, 0x00, 0x00, 0x00, 0x00, 0x00, 0x00, 0x00, 
  0x00, 0x00, 0x00, 0x00, 0x50, 0xe0, 0xff, 0xff, 0x54, 0xe0, 0xff, 0xff, 
  0x58, 0xe0, 0xff, 0xff, 0x5c, 0xe0, 0xff, 0xff, 0x60, 0xe0, 0xff, 0xff, 
  0x64, 0xe0, 0xff, 0xff, 0x68, 0xe0, 0xff, 0xff, 0x6c, 0xe0, 0xff, 0xff, 
  0x70, 0xe0, 0xff, 0xff, 0x32, 0xee, 0xff, 0xff, 0x04, 0x00, 0x00, 0x00, 
  0x80, 0x04, 0x00, 0x00, 0xfa, 0x1d, 0xe8, 0x56, 0xf6, 0xae, 0x69, 0x6e, 
  0xcf, 0x29, 0xe9, 0x04, 0xfa, 0xc8, 0x31, 0x31, 0x5d, 0xea, 0xfb, 0x4d, 
  0x41, 0xb9, 0xfd, 0x18, 0x1a, 0x25, 0xf5, 0x09, 0xe5, 0xa4, 0x68, 0x55, 
  0x5b, 0xdd, 0xaf, 0x3d, 0x20, 0x9b, 0x0b, 0xc9, 0xfc, 0x34, 0x32, 0xcd, 
  0xe7, 0x1e, 0xc3, 0xa6, 0x96, 0x04, 0xc6, 0x54, 0xe6, 0xc5, 0x6b, 0xed, 
  0xe4, 0xc2, 0x26, 0xfa, 0xff, 0x81, 0x00, 0xdc, 0x11, 0xd5, 0xe4, 0x2c, 
  0x2a, 0xa6, 0xf9, 0xdd, 0xae, 0x4d, 0x23, 0xf4, 0xd3, 0x24, 0x4d, 0x36, 
  0x65, 0xb9, 0x60, 0x7f, 0x6d, 0x0a, 0x5e, 0x4a, 0x3b, 0x19, 0x3b, 0xd7, 
  0xeb, 0xd5, 0x7c, 0x5d, 0x0c, 0xe8, 0x3d, 0xe7, 0xfe, 0x04, 0x04, 0xfb, 
  0x50, 0xd0, 0x6d, 0xef, 0x02, 0x24, 0x41, 0x33, 0xc1, 0x26, 0x0c, 0x6e, 
  0x3c, 0x6c, 0x6a, 0x42, 0xbf, 0xe0, 0xd7, 0x11, 0x16, 0x06, 0xc7, 0x4e, 
  0xd9, 0x5c, 0x49, 0x15, 0x1b, 0x22, 0xb9, 0x2b, 0x16, 0x02, 0xcd, 0x28, 
  0xe5, 0x0a, 0x3a, 0xd4, 0x35, 0xd2, 0x58, 0x2e, 0x40, 0xf8, 0xc9, 0xbc, 
  0x74, 0x02, 0x5c, 0x45, 0xd1, 0xde, 0xbf, 0x19, 0xf4, 0x13, 0x18, 0x19, 
  0x67, 0x62, 0x1a, 0x4b, 0xf1, 0x04, 0xd6, 0x56, 0x2c, 0x07, 0xd8, 0xbf, 
  0xb6, 0x6a, 0xad, 0x09, 0xc7, 0x05, 0x57, 0x20, 0xed, 0xbc, 0x36, 0xef, 
  0xdb, 0x55, 0x7f, 0x4e, 0xfe, 0x4f, 0x00, 0x6e, 0x24, 0x13, 0x2f, 0x50, 
  0x48, 0x36, 0xfe, 0x50, 0x4a, 0x7a, 0xb6, 0xde, 0xf3, 0x77, 0xe0, 0x7f, 
  0x71, 0x0f, 0xd7, 0x2d, 0xf4, 0x43, 0xd9, 0xfb, 0x4f, 0x1e, 0x47, 0x10, 
  0x58, 0xe0, 0x30, 0x41, 0xd2, 0x09, 0xdd, 0x0d, 0x2d, 0x4e, 0x25, 0x3b, 
  0x2a, 0x3a, 0x69, 0x22, 0xda, 0x24, 0xc8, 0x3d, 0x65, 0x0c, 0x00, 0x3a, 
  0x55, 0x10, 0x29, 0x52, 0x13, 0xd5, 0xf3, 0xcf, 0x10, 0x3a, 0x20, 0x2d, 
  0x36, 0x5b, 0x66, 0x11, 0xcc, 0xfc, 0xaf, 0x24, 0x3b, 0x0a, 0x51, 0x16, 
  0x56, 0xcc, 0x59, 0x26, 0x2a, 0x13, 0xad, 0xfd, 0xe8, 0x5f, 0x16, 0x14, 
  0x28, 0x12, 0x7f, 0x11, 0x5f, 0x5b, 0x0f, 0x33, 0x5b, 0xe6, 0xdc, 0x1e, 
  0x32, 0xbc, 0x21, 0xe1, 0x45, 0x5e, 0x3c, 0x5a, 0x60, 0x7f, 0x71, 0xd4, 
  0x1d, 0xcf, 0xce, 0x36, 0x06, 0x42, 0x63, 0xe0, 0xdc, 0x09, 0x02, 0xb9, 
  0x46, 0xd1, 0xf7, 0xf4, 0x65, 0xfb, 0x0e, 0xc4, 0xc0, 0xeb, 0x60, 0x4c, 
  0x61, 0xfb, 0xcb, 0x60, 0x15, 0x35, 0xc6, 0x45, 0x05, 0x28, 0x25, 0x0f, 
  0x51, 0x3f, 0xea, 0xf0, 0xeb, 0x1b, 0x1f, 0x48, 0x62, 0x64, 0xe6, 0xe7, 
  0x57, 0x59, 0xc3, 0x27, 0xfd, 0xf0, 0xff, 0x22, 0xc8, 0x29, 0x40, 0xb7, 
  0xe3, 0xb3, 0x5f, 0x5c, 0x42, 0x13, 0xe7, 0xab, 0x03, 0x19, 0x11, 0xc0, 
  0xc2, 0x7f, 0xda, 0xc5, 0xea, 0x44, 0xf5, 0x4a, 0x51, 0xf1, 0xe6, 0x29, 
  0xb9, 0x23, 0x26, 0xf3, 0xb9, 0x44, 0xa5, 0xc5, 0x3c, 0xb1, 0xac, 0x00, 
  0xfc, 0xd9, 0xef, 0xb0, 0xf0, 0x52, 0xf0, 0xb5, 0x2b, 0xb0, 0x23, 0x09, 
  0x04, 0xa8, 0xf1, 0xdb, 0xab, 0xab, 0x0a, 0xc9, 0x05, 0x38, 0xef, 0x41, 
  0x09, 0xb7, 0x52, 0xef, 0x59, 0xec, 0x01, 0xda, 0xfa, 0x6d, 0xfa, 0xdd, 
  0x25, 0x2e, 0xd7, 0xf6, 0xcc, 0x22, 0x68, 0x3d, 0x03, 0x3d, 0x59, 0x5b, 
  0x77, 0x04, 0x34, 0x16, 0x0a, 0xf9, 0x73, 0xf8, 0x64, 0xea, 0x5a, 0x46, 
  0x29, 0x10, 0x11, 0x41, 0x59, 0xdd, 0x64, 0xcf, 0xd1, 0xec, 0xf5, 0xfc, 
  0x3d, 0xfe, 0x27, 0xee, 0x4e, 0x32, 0xef, 0x60, 0xe2, 0x5d, 0xca, 0x2f, 
  0xe0, 0xdb, 0x7b, 0x72, 0x1e, 0xf7, 0xb9, 0x00, 0xfb, 0x7f, 0x52, 0xd8, 
  0xd1, 0x60, 0xf7, 0x79, 0x23, 0x7f, 0x58, 0x23, 0x10, 0x19, 0x40, 0x0b, 
  0x76, 0x29, 0xc8, 0x1a, 0x54, 0x08, 0x02, 0xd5, 0x1a, 0x37, 0xe2, 0x76, 
  0x75, 0x44, 0x0c, 0x4d, 0xfd, 0xf4, 0xc9, 0xe0, 0x04, 0x51, 0x0a, 0xda, 
  0x26, 0x0b, 0x3d, 0xd9, 0xc9, 0x01, 0xce, 0x60, 0x4b, 0x0b, 0x44, 0x16, 
  0xc6, 0xb6, 0xfa, 0x03, 0x4d, 0xef, 0x00, 0xfb, 0x6b, 0x4e, 0x1a, 0x5c, 
  0x68, 0xf8, 0x42, 0xcd, 0x31, 0x67, 0xcd, 0x22, 0xd3, 0x2c, 0x37, 0x32, 
  0x14, 0x60, 0x04, 0xe4, 0x10, 0x7f, 0x1c, 0xf8, 0xf4, 0x4a, 0x54, 0xe7, 
  0xf8, 0xef, 0x64, 0x2f, 0x04, 0xd3, 0xce, 0x5e, 0xda, 0x02, 0xcc, 0x17, 
  0xf8, 0x04, 0x7a, 0xd5, 0x50, 0xc9, 0xe7, 0xd6, 0x52, 0x1a, 0xd5, 0xcf, 
  0x1c, 0x09, 0xd6, 0xfe, 0x79, 0xbf, 0xf5, 0xe0, 0xc5, 0x04, 0x1f, 0x0a, 
  0xff, 0x7d, 0x1c, 0x0d, 0xbf, 0xc0, 0x6b, 0xdf, 0x6a, 0x3a, 0x64, 0xd7, 
  0x03, 0x42, 0xe9, 0x34, 0xea, 0x57, 0x5c, 0x36, 0x41, 0x18, 0xf8, 0xec, 
  0x10, 0x6a, 0x5b, 0xf3, 0xd8, 0x14, 0xe3, 0x17, 0xc2, 0x3b, 0x4d, 0xef, 
  0x02, 0x43, 0xc0, 0x2b, 0x47, 0x27, 0x1b, 0x2c, 0xfc, 0xd9, 0x53, 0xf7, 
  0xf7, 0x34, 0x46, 0x3c, 0x3e, 0xdb, 0x4a, 0x4f, 0x22, 0xf4, 0x29, 0x31, 
  0x1e, 0x1f, 0xe2, 0x02, 0x3a, 0x32, 0x08, 0x05, 0x3b, 0x36, 0xf2, 0x0d, 
  0x21, 0x26, 0x7f, 0x22, 0xfa, 0xcd, 0x1f, 0x3b, 0x18, 0x1a, 0x2f, 0x52, 
  0x0c, 0x23, 0x36, 0x3e, 0x27, 0xfd, 0x06, 0x2b, 0xfe, 0x1f, 0xe7, 0xfc, 
  0xfe, 0x3d, 0x40, 0x23, 0x30, 0xcd, 0xca, 0xc2, 0x46, 0x69, 0x1d, 0xbd, 
  0xe4, 0x32, 0xf5, 0x3e, 0xce, 0xf2, 0xeb, 0x1e, 0x13, 0x45, 0x51, 0x42, 
  0x12, 0xd7, 0xcf, 0xea, 0xcf, 0xac, 0xb8, 0xf5, 0x26, 0x4b, 0xd4, 0xd4, 
  0x12, 0x37, 0x4e, 0x0d, 0x48, 0x27, 0xbd, 0x55, 0x33, 0x31, 0x10, 0x0e, 
  0x5c, 0x2b, 0xfd, 0x61, 0x2a, 0x20, 0xe5, 0xc8, 0xe7, 0x15, 0xd0, 0x6d, 
  0xe4, 0xa2, 0x0c, 0xb9, 0xf0, 0xbf, 0x67, 0x7f, 0x29, 0x3f, 0x4d, 0xa1, 
  0x00, 0x54, 0x30, 0x68, 0xe0, 0x56, 0xfc, 0xef, 0x38, 0xc7, 0x1d, 0x1a, 
  0x7f, 0x35, 0x4a, 0x7e, 0x40, 0x23, 0xbd, 0xaf, 0xef, 0xd1, 0x42, 0xf8, 
  0xca, 0x45, 0x78, 0x6a, 0x48, 0xc0, 0xa6, 0xd7, 0x38, 0x14, 0xc2, 0x72, 
  0xe3, 0x9b, 0x44, 0x7d, 0x09, 0x51, 0x15, 0x37, 0x16, 0x06, 0x35, 0xeb, 
  0x4e, 0x26, 0xf5, 0xca, 0xd0, 0x59, 0x4c, 0xd9, 0x74, 0x1a, 0x32, 0x56, 
  0x60, 0xf9, 0xff, 0x3a, 0xe5, 0x49, 0x5e, 0xf7, 0x5d, 0xee, 0xd2, 0xd9, 
  0x0b, 0xd7, 0x51, 0x38, 0x0e, 0x1b, 0x8c, 0x27, 0xda, 0x7f, 0x41, 0x79, 
  0x1d, 0x23, 0x12, 0x2f, 0xd8, 0x4a, 0xcd, 0xdd, 0x38, 0xc7, 0x31, 0x31, 
  0x2a, 0x24, 0x5d, 0x04, 0xb5, 0x53, 0x2d, 0x13, 0xfc, 0xbf, 0xc9, 0x00, 
  0x42, 0x26, 0x65, 0x57, 0xaa, 0xd3, 0xb6, 0x2e, 0x07, 0x4c, 0x17, 0x42, 
  0xb5, 0x5a, 0x28, 0xdd, 0x53, 0x21, 0xf3, 0xf8, 0x38, 0x6a, 0x39, 0x61, 
  0x6a, 0x30, 0x68, 0x38, 0x79, 0x49, 0xdf, 0x3a, 0x2b, 0x5b, 0x05, 0x26, 
  0x4e, 0xe2, 0x69, 0xd5, 0xd0, 0xee, 0xde, 0x28, 0x6b, 0xfb, 0x1f, 0x6b, 
  0x42, 0x02, 0x07, 0x22, 0x3f, 0x0a, 0xcf, 0x0e, 0x33, 0x32, 0xd4, 0xcd, 
  0xd2, 0xe2, 0x1b, 0x34, 0xe9, 0xc5, 0xcb, 0x4a, 0xe0, 0xd9, 0xf3, 0x2e, 
  0xe8, 0xf9, 0x1a, 0x2f, 0xda, 0x4c, 0xf6, 0x3c, 0xd1, 0x10, 0x17, 0xe6, 
  0x14, 0x40, 0x57, 0x33, 0x18, 0x3f, 0xf8, 0xdc, 0x14, 0x48, 0x26, 0xe6, 
  0x06, 0x3a, 0xe2, 0x57, 0x3f, 0xf8, 0xd8, 0xf1, 0xe8, 0x45, 0x32, 0xff, 
  0x37, 0xf7, 0x7f, 0x43, 0xc6, 0x06, 0x42, 0x6d, 0x45, 0x53, 0xc8, 0x15, 
  0xc8, 0xb4, 0xd2, 0xed, 0x1a, 0x1e, 0x57, 0xe5, 0xe7, 0x21, 0x49, 0x41, 
  0x3e, 0x5b, 0x11, 0x62, 0xc8, 0x51, 0x22, 0x4f, 0x35, 0x66, 0xe2, 0x3c, 
  0x2a, 0x07, 0x53, 0xf7, 0xb8, 0xc8, 0x47, 0x39, 0x72, 0x14, 0x0b, 0x2c, 
  0x32, 0xfa, 0x7f, 0xad, 0x47, 0xbd, 0x5e, 0x19, 0x45, 0x4d, 0x06, 0x3a, 
  0x5a, 0x53, 0x0d, 0x41, 0x62, 0x5a, 0x5c, 0x5d, 0x52, 0x4e, 0x44, 0x5b, 
  0xfb, 0xda, 0x49, 0x05, 0x48, 0xf5, 0x5c, 0x07, 0x36, 0x0f, 0x06, 0xf1, 
  0x08, 0x48, 0xf5, 0xea, 0xf3, 0x2a, 0x08, 0x41, 0xd8, 0x68, 0x19, 0xea, 
  0x06, 0x54, 0x7f, 0xd0, 0xdb, 0x14, 0xcf, 0x13, 0xf6, 0xd0, 0xe1, 0xcd, 
  0xfb, 0x2a, 0xdd, 0x40, 0x23, 0xd3, 0x48, 0x19, 0x5e, 0x67, 0xea, 0x41, 
  0xb7, 0xb8, 0x10, 0x6e, 0xfb, 0xd3, 0xef, 0xed, 0x28, 0x18, 0x3c, 0x1c, 
  0x58, 0x22, 0x32, 0xf7, 0x45, 0x1f, 0x05, 0xee, 0xfb, 0xca, 0x47, 0xd3, 
  0x63, 0x56, 0x21, 0x03, 0xbe, 0xf2, 0xff, 0xff, 0x04, 0x00, 0x00, 0x00, 
  0x0c, 0x00, 0x00, 0x00, 0xff, 0xff, 0xff, 0xff, 0x08, 0x00, 0x00, 0x00, 
  0x18, 0x00, 0x00, 0x00, 0xd6, 0xf2, 0xff, 0xff, 0x04, 0x00, 0x00, 0x00, 
  0x0c, 0x00, 0x00, 0x00, 0xff, 0xff, 0xff, 0xff, 0x06, 0x00, 0x00, 0x00, 
  0x10, 0x00, 0x00, 0x00, 0xee, 0xf2, 0xff, 0xff, 0x04, 0x00, 0x00, 0x00, 
  0x0c, 0x00, 0x00, 0x00, 0x10, 0xf2, 0x3d, 0x40, 0x88, 0x1e, 0x40, 0x40, 
  0xde, 0x95, 0x3d, 0x40, 0x06, 0xf3, 0xff, 0xff, 0x04, 0x00, 0x00, 0x00, 
  0x60, 0x00, 0x00, 0x00, 0x85, 0xa6, 0x8d, 0x3e, 0x7a, 0x75, 0x95, 0x3e, 
  0x16, 0x6c, 0xb2, 0x3e, 0x3b, 0x26, 0x85, 0x3e, 0xb0, 0x52, 0x9e, 0x3e, 
  0x3f, 0xd7, 0x93, 0x3e, 0xbc, 0x7a, 0x87, 0x3e, 0x32, 0x0c, 0x84, 0x3e, 
  0x36, 0x3d, 0xbe, 0x3e, 0x82, 0xdd, 0xb2, 0x3e, 0xca, 0xb7, 0xe6, 0x3e, 
  0x2c, 0x53, 0x66, 0x3e, 0xa3, 0x85, 0x84, 0x3e, 0x55, 0x5b, 0x8d, 0x3e, 
  0x52, 0x81, 0x87, 0x3e, 0x37, 0x38, 0x6a, 0x3e, 0x65, 0xbc, 0x6c, 0x3e, 
  0x19, 0x09, 0x8c, 0x3e, 0x71, 0x73, 0x69, 0x3e, 0x27, 0xf5, 0xa9, 0x3e, 
  0x57, 0x9b, 0x82, 0x3e, 0x89, 0x32, 0xbb, 0x3e, 0xb1, 0x4f, 0x98, 0x3e, 
  0x02, 0x01, 0xaa, 0x3e, 0x72, 0xf3, 0xff, 0xff, 0x04, 0x00, 0x00, 0x00, 
  0x40, 0x00, 0x00, 0x00, 0x5e, 0x61, 0x51, 0x3f, 0xbc, 0xba, 0x28, 0x3f, 
  0x8e, 0xf8, 0x02, 0x3f, 0x59, 0x45, 0x0c, 0xbf, 0xd7, 0x62, 0xfd, 0x3e, 
  0x2e, 0x4a, 0x4b, 0x3f, 0xe1, 0x61, 0x1c, 0x3f, 0xdd, 0x67, 0x07, 0x3f, 
  0xce, 0x5b, 0x25, 0x3f, 0x95, 0x28, 0x75, 0xbe, 0x72, 0x74, 0x10, 0x3f, 
  0x6e, 0x29, 0x22, 0x3f, 0x56, 0x83, 0x1a, 0x3f, 0xc4, 0x99, 0x2d, 0x3f, 
  0x0b, 0xff, 0x02, 0x3f, 0xf0, 0x5a, 0x1b, 0x3f, 0xbe, 0xf3, 0xff, 0xff, 
  0x04, 0x00, 0x00, 0x00, 0x60, 0x00, 0x00, 0x00, 0xe3, 0x67, 0x07, 0xbd, 
  0x7c, 0x74, 0xce, 0x3e, 0xa7, 0x05, 0x03, 0x3f, 0x48, 0x71, 0x10, 0x3f, 
  0x18, 0x68, 0x7e, 0xbc, 0x1a, 0xd0, 0xc3, 0x3e, 0xfe, 0xe4, 0xf0, 0xbc, 
  0x39, 0xf4, 0x4f, 0xbc, 0x5b, 0xf4, 0xf6, 0xbc, 0xf4, 0xe9, 0x1f, 0xbd, 
  0x50, 0x51, 0xd1, 0x3e, 0x85, 0x26, 0x7c, 0xbc, 0xe0, 0x78, 0xb4, 0x3e, 
  0x76, 0xba, 0x52, 0xbd, 0x5d, 0x8a, 0x1d, 0x3f, 0x9c, 0x75, 0x9d, 0x3e, 
  0xaa, 0x6e, 0x2b, 0xbd, 0xba, 0xb2, 0xb9, 0xbc, 0x93, 0x36, 0x46, 0xbd, 
  0x88, 0xd9, 0xfb, 0xbc, 0x54, 0xf0, 0xf3, 0x3e, 0xf6, 0xe0, 0xe1, 0x3e, 
  0x42, 0xe2, 0x11, 0x3f, 0x5a, 0x97, 0x05, 0x3f, 0x2a, 0xf4, 0xff, 0xff, 
  0x04, 0x00, 0x00, 0x00, 0x80, 0x04, 0x00, 0x00, 0x69, 0x9d, 0x16, 0xbe, 
  0xfd, 0x14, 0x1b, 0x3d, 0xf0, 0xa8, 0x0c, 0xbe, 0x0d, 0xa0, 0x31, 0x3e, 
  0xf4, 0x20, 0x89, 0xbd, 0x45, 0xb8, 0x5c, 0xbd, 0x50, 0x50, 0x32, 0x3e, 
  0x13, 0xa0, 0x82, 0xbd, 0x64, 0x4c, 0x99, 0x3e, 0x1f, 0xc1, 0x11, 0xbe, 
  0x64, 0xdd, 0xbb, 0xbd, 0x3e, 0xce, 0x09, 0xbe, 0x31, 0x67, 0x6e, 0x3d, 
  0xf0, 0x03, 0x34, 0x3e, 0xe8, 0xef, 0x13, 0x3e, 0xd3, 0x5d, 0xad, 0x3b, 
  0x9d, 0x71, 0x8c, 0xbe, 0x8b, 0x80, 0x05, 0xbd, 0xcf, 0xab, 0xe5, 0x3d, 
  0xf4, 0xea, 0x00, 0xbe, 0x0c, 0x4d, 0xcd, 0x3d, 0xdd, 0x5c, 0x52, 0xbe, 
  0xf0, 0x10, 0xe3, 0xb8, 0xd8, 0x0b, 0xe8, 0x3d, 0xf5, 0x06, 0xc9, 0x3d, 
  0xfd, 0x3c, 0xbb, 0x3c, 0xb0, 0xba, 0xb4, 0x3c, 0x89, 0x94, 0xdd, 0x39, 
  0x23, 0x31, 0x8e, 0x3d, 0xe9, 0x1d, 0x16, 0x3d, 0xd5, 0xf9, 0xac, 0xbd, 
  0xde, 0xf9, 0x90, 0xbc, 0x63, 0x96, 0xa9, 0xbc, 0x5c, 0xe2, 0xca, 0x3c, 
  0x08, 0x00, 0x2c, 0x3e, 0x44, 0xfd, 0x60, 0xbc, 0x8b, 0xcc, 0x66, 0xbe, 
  0x32, 0x13, 0x3c, 0x3e, 0xbd, 0x51, 0x08, 0x3d, 0x50, 0xa1, 0xb5, 0xbd, 
  0x70, 0x6a, 0xa3, 0x3d, 0xc8, 0x2c, 0x37, 0xbe, 0x1a, 0x77, 0x63, 0x3e, 
  0x31, 0x16, 0x74, 0x3e, 0x56, 0xb1, 0x7a, 0xbc, 0x3f, 0xc6, 0x2f, 0xbe, 
  0xfd, 0x26, 0x0c, 0xbe, 0xa6, 0x3d, 0x35, 0xbe, 0x7e, 0xc1, 0x58, 0x3d, 
  0xa6, 0x51, 0xef, 0x3d, 0x5b, 0x60, 0x22, 0x3d, 0xee, 0x01, 0x31, 0xbe, 
  0xab, 0x8a, 0x79, 0x3e, 0x68, 0xe5, 0x09, 0xbe, 0x0e, 0x11, 0x1d, 0xbe, 
  0xe3, 0xb4, 0xdd, 0x3d, 0x3b, 0x70, 0x34, 0xbd, 0xcc, 0xfb, 0x71, 0x3e, 
  0x9b, 0x9a, 0x5d, 0x3e, 0xed, 0xa8, 0xa4, 0x3d, 0x08, 0x6b, 0x5a, 0xbd, 
  0xb1, 0x7f, 0xb2, 0x3d, 0xd7, 0xaa, 0xc7, 0x3d, 0x03, 0x84, 0x18, 0x3e, 
  0x42, 0xbc, 0x60, 0x3c, 0x18, 0x3a, 0x61, 0xbe, 0x80, 0x58, 0x80, 0xbe, 
  0xb9, 0xd3, 0x46, 0xbc, 0x88, 0x82, 0x55, 0x3e, 0x21, 0x50, 0x14, 0xbe, 
  0x88, 0x33, 0xf3, 0x3d, 0xb8, 0xbd, 0xb5, 0x3d, 0xc4, 0x86, 0x36, 0x3e, 
  0xe4, 0x06, 0x75, 0x3e, 0x5f, 0x3a, 0x93, 0x3d, 0x08, 0xa0, 0x21, 0xbe, 
  0x3b, 0xff, 0x7b, 0x3e, 0x03, 0x1d, 0xc5, 0xbd, 0xca, 0x5b, 0x67, 0xbe, 
  0x98, 0x57, 0x0e, 0xbe, 0x8e, 0xea, 0x4f, 0xbe, 0x59, 0xb3, 0x0d, 0xbe, 
  0x38, 0xf7, 0xaa, 0x3d, 0xb7, 0x47, 0x8a, 0x3e, 0xe2, 0x08, 0x2d, 0xbe, 
  0x2e, 0x63, 0xf4, 0xbd, 0x5d, 0xa4, 0xd0, 0x3c, 0xae, 0x1a, 0x33, 0xbd, 
  0xb9, 0x25, 0xea, 0x3d, 0x7d, 0x23, 0x43, 0x3e, 0x43, 0xe2, 0x63, 0xbe, 
  0xf4, 0xce, 0xd7, 0x3d, 0x8b, 0x67, 0x95, 0x3e, 0x69, 0x56, 0xa0, 0x3d, 
  0xbd, 0x76, 0x6d, 0x3e, 0x35, 0x2d, 0x81, 0xbd, 0x80, 0x61, 0x91, 0xbd, 
  0x2b, 0x64, 0x87, 0x3e, 0xad, 0xb2, 0x6b, 0x3e, 0x11, 0x1c, 0xb8, 0x3d, 
  0x50, 0x3f, 0x8a, 0x3e, 0x94, 0xf1, 0x3b, 0xbe, 0x64, 0xb0, 0xaa, 0xbd, 
  0x5d, 0xc8, 0x55, 0x3d, 0xb7, 0x39, 0x3e, 0x3e, 0xe5, 0x75, 0x4a, 0x3e, 
  0x13, 0xff, 0x16, 0xbe, 0xb8, 0xd1, 0xc0, 0xbd, 0x7e, 0x71, 0x18, 0x3e, 
  0x2f, 0x1a, 0x7a, 0x3d, 0x19, 0x16, 0xe4, 0x3d, 0xb0, 0x88, 0xac, 0x3d, 
  0x79, 0x8b, 0x51, 0x3d, 0x8c, 0x38, 0x18, 0x3d, 0xc2, 0xce, 0xf4, 0xbc, 
  0x79, 0x44, 0x62, 0xbd, 0xec, 0x40, 0x25, 0xbd, 0x73, 0x8d, 0x70, 0xbc, 
  0xd8, 0x9e, 0x42, 0xbc, 0xe6, 0x92, 0xa7, 0xbd, 0x1c, 0xda, 0x25, 0x3e, 
  0xac, 0x76, 0x8b, 0xbc, 0xec, 0x16, 0x2e, 0xbd, 0xd4, 0x26, 0x89, 0x3d, 
  0x63, 0xbd, 0x5c, 0x3e, 0x19, 0x71, 0x03, 0x3d, 0x8e, 0x7f, 0x53, 0x3e, 
  0xfc, 0x5c, 0x19, 0xbc, 0xa8, 0x25, 0xe2, 0x3d, 0xf5, 0xdc, 0x46, 0x3e, 
  0xb1, 0xd3, 0x1f, 0xbe, 0xcc, 0xac, 0xd8, 0x3c, 0x51, 0x22, 0x69, 0xbe, 
  0xa2, 0x9c, 0xf2, 0x3d, 0xb8, 0x23, 0x3e, 0x3c, 0xcd, 0xb7, 0xc3, 0xbd, 
  0xc6, 0xc5, 0x0c, 0x3e, 0x46, 0x6e, 0xd9, 0xbd, 0x4b, 0x49, 0x10, 0xbd, 
  0x88, 0x92, 0xc1, 0x3c, 0xe7, 0x2c, 0x22, 0x3e, 0xd0, 0xb0, 0x12, 0xbd, 
  0x4d, 0x7b, 0x9b, 0x3d, 0xcb, 0xaa, 0x87, 0x3d, 0x4f, 0x18, 0x79, 0x3e, 
  0x9b, 0x8b, 0x22, 0x3e, 0x48, 0xae, 0x24, 0x3d, 0x01, 0x43, 0x4a, 0x3d, 
  0xa1, 0x1d, 0xe9, 0x3d, 0x79, 0x69, 0x44, 0xbe, 0x9b, 0x25, 0x2c, 0xbe, 
  0x6c, 0x7e, 0x1c, 0xbe, 0x96, 0x68, 0x25, 0xbd, 0xf8, 0xe4, 0x22, 0xbc, 
  0xdb, 0xd8, 0xbb, 0xbd, 0x33, 0x7d, 0xb3, 0x3d, 0xee, 0x06, 0x7c, 0xbe, 
  0x33, 0x58, 0xb1, 0x3d, 0x50, 0x50, 0xa6, 0xbb, 0x7b, 0x52, 0xc6, 0xbd, 
  0x82, 0x3c, 0x92, 0xbc, 0x1c, 0x8c, 0x84, 0xbd, 0xbb, 0xb4, 0x0c, 0x3e, 
  0xfa, 0x90, 0xe7, 0xbd, 0x46, 0x97, 0x5c, 0xbe, 0xf6, 0x28, 0x67, 0xbe, 
  0x6c, 0x1f, 0x09, 0x3e, 0xc9, 0x72, 0xda, 0xbd, 0x57, 0xf1, 0x43, 0x3e, 
  0x6f, 0x37, 0x41, 0x3e, 0x69, 0x30, 0x9c, 0xbd, 0x64, 0xde, 0x15, 0x3c, 
  0xfa, 0xd6, 0xe3, 0xba, 0xb3, 0x73, 0x2b, 0xbd, 0x96, 0x06, 0x1a, 0xbe, 
  0xbd, 0x89, 0x43, 0xbd, 0xf8, 0x48, 0xc4, 0xbb, 0x03, 0x83, 0x03, 0xbe, 
  0x97, 0xac, 0x54, 0x3e, 0x4d, 0x30, 0xa9, 0x3c, 0x8e, 0x4e, 0x7b, 0xbc, 
  0x25, 0x5e, 0x86, 0x3e, 0xcf, 0xf9, 0x1e, 0xbe, 0x11, 0xe2, 0x6a, 0xbd, 
  0xa4, 0xad, 0x11, 0x3e, 0xf8, 0x7b, 0xfc, 0xbd, 0x94, 0x5a, 0x26, 0xbd, 
  0x9c, 0x33, 0x9e, 0x3d, 0x7c, 0x09, 0x15, 0x3e, 0xf2, 0x37, 0x5d, 0xbe, 
  0xcb, 0xf7, 0x47, 0xbc, 0x54, 0x33, 0xc8, 0xbc, 0x45, 0x29, 0x46, 0xbe, 
  0x45, 0xd8, 0x42, 0x3e, 0x08, 0x4d, 0x57, 0xbd, 0x1f, 0x72, 0xea, 0xbd, 
  0xc8, 0xc2, 0xdc, 0xbd, 0x43, 0x0e, 0x16, 0x3c, 0x77, 0xf9, 0x1b, 0x3e, 
  0xbe, 0xca, 0xfb, 0xbc, 0x8f, 0x00, 0xa7, 0x3d, 0xff, 0x8f, 0x8c, 0xbe, 
  0x4c, 0x81, 0x4d, 0x3e, 0x5a, 0x72, 0x0c, 0x3e, 0x11, 0xf9, 0x51, 0xbc, 
  0xad, 0xce, 0x8f, 0xbd, 0xb1, 0x08, 0xbb, 0xbc, 0x98, 0x86, 0x8c, 0xbe, 
  0x8e, 0xa0, 0x7f, 0xbd, 0x8a, 0x8b, 0x82, 0x3e, 0xba, 0x72, 0x03, 0x3d, 
  0xea, 0x3c, 0x6e, 0x3e, 0x1b, 0x85, 0x86, 0x3e, 0x59, 0x7b, 0xf1, 0xbd, 
  0x87, 0x71, 0x85, 0x3c, 0x0d, 0x51, 0x1e, 0x3d, 0x6e, 0x07, 0x5f, 0x3e, 
  0x81, 0x37, 0xc3, 0xbc, 0x79, 0x9b, 0x35, 0xbe, 0x69, 0xa0, 0x30, 0xba, 
  0x96, 0x79, 0x77, 0xbe, 0x11, 0x02, 0x69, 0x3d, 0xac, 0x98, 0x66, 0xbd, 
  0x34, 0x7d, 0x0d, 0xbe, 0xdb, 0x39, 0x5b, 0x3e, 0x10, 0xdf, 0xf9, 0xbd, 
  0x94, 0xa6, 0xd4, 0x3d, 0x21, 0xba, 0x05, 0x3e, 0x9c, 0xe2, 0x87, 0x3d, 
  0xd0, 0x83, 0x36, 0xbe, 0xe7, 0x2a, 0xf0, 0xbd, 0x86, 0x28, 0x17, 0x3e, 
  0xe0, 0x79, 0x79, 0xbd, 0x23, 0x50, 0x25, 0xbd, 0xd2, 0x48, 0x0c, 0xbe, 
  0x3e, 0xe3, 0xd2, 0x3c, 0x7e, 0x49, 0x8b, 0xbd, 0x25, 0xc8, 0x24, 0xbc, 
  0x2b, 0x71, 0x7d, 0x3e, 0x11, 0x27, 0x3a, 0xbe, 0xf2, 0x5e, 0x0f, 0x3e, 
  0x57, 0xe2, 0x81, 0x3d, 0x2e, 0x1d, 0xb3, 0xbd, 0x0e, 0x7c, 0xc5, 0x3d, 
  0xdb, 0xdf, 0x65, 0xbd, 0x1e, 0x74, 0x55, 0x3e, 0x74, 0xda, 0xc9, 0x3d, 
  0xd9, 0xc6, 0x75, 0xbe, 0xf8, 0x08, 0x77, 0x3d, 0x85, 0x41, 0x41, 0xbe, 
  0xe5, 0x39, 0x65, 0x3d, 0xec, 0x1b, 0x0a, 0x3e, 0x17, 0x7f, 0x96, 0x3d, 
  0x73, 0x31, 0x56, 0x3e, 0xd7, 0x2f, 0xb7, 0xbc, 0x80, 0x2e, 0x2a, 0x3d, 
  0x00, 0x31, 0x02, 0x3e, 0xb5, 0x56, 0x02, 0x3e, 0xfa, 0x47, 0x30, 0x3c, 
  0x0c, 0x96, 0xa8, 0x3d, 0xcb, 0xf3, 0x73, 0x3d, 0x1e, 0x24, 0xac, 0xbd, 
  0xca, 0xb1, 0x56, 0x3e, 0xeb, 0x4e, 0x2e, 0x3d, 0x20, 0x84, 0xd7, 0xbd, 
  0xd1, 0x90, 0xf6, 0xbd, 0x90, 0x23, 0x53, 0xbe, 0x6a, 0x1f, 0x94, 0x3c, 
  0xfb, 0xd2, 0x08, 0x3e, 0x46, 0x35, 0x32, 0xbe, 0x5d, 0xef, 0x2b, 0x3e, 
  0x82, 0x6b, 0x64, 0x3e, 0x55, 0x69, 0xa3, 0x3d, 0xf5, 0x36, 0xae, 0x3d, 
  0x9d, 0xb9, 0x5a, 0xbe, 0x74, 0xc7, 0x51, 0xbe, 0x30, 0xda, 0x19, 0xbc, 
  0x33, 0x9d, 0x76, 0xbc, 0x3b, 0x2a, 0x3b, 0xbd, 0x59, 0xa9, 0x2d, 0x3c, 
  0x23, 0x4d, 0xd5, 0x3d, 0x7c, 0x45, 0x17, 0x3e, 0xae, 0x45, 0xd8, 0xbd, 
  0xcb, 0xd3, 0x8b, 0x3d, 0xe7, 0xf4, 0x3c, 0x3e, 0xbc, 0x51, 0xcc, 0xbd, 
  0x68, 0xac, 0xed, 0x3b, 0x51, 0x2a, 0x6a, 0xbd, 0xb6, 0xf8, 0xff, 0xff, 
  0x04, 0x00, 0x00, 0x00, 0x20, 0x01, 0x00, 0x00, 0x48, 0xb9, 0xcb, 0xbe, 
  0xc1, 0xdf, 0xb4, 0x3e, 0x7f, 0xc5, 0xe3, 0x3e, 0xea, 0x36, 0x95, 0x3e, 
  0x19, 0x4c, 0xb1, 0xbd, 0x17, 0xc5, 0xc0, 0x3e, 0x49, 0xe5, 0x47, 0xbd, 
  0x5c, 0xe3, 0x9c, 0xbe, 0x77, 0xfe, 0x95, 0xbe, 0xf6, 0xf5, 0x42, 0xbe, 
  0x92, 0x7c, 0xc2, 0x3e, 0xe0, 0x72, 0x5b, 0xbe, 0xfb, 0xbd, 0x9f, 0x3e, 
  0x8c, 0x3c, 0xa1, 0xbe, 0xdc, 0x83, 0xc0, 0x3e, 0x88, 0x80, 0xa1, 0x3e, 
  0xec, 0xdb, 0x67, 0x3e, 0xfd, 0x59, 0xe8, 0xbe, 0x3d, 0x19, 0x04, 0xbe, 
  0xca, 0xac, 0xfb, 0xbd, 0x80, 0x32, 0xd8, 0x3e, 0xbd, 0x11, 0xcb, 0x3e, 
  0x31, 0xa9, 0xa8, 0x3e, 0x41, 0xd8, 0xc4, 0x3e, 0x96, 0x83, 0x89, 0xbd, 
  0x7f, 0xa8, 0xb4, 0x3e, 0xad, 0x37, 0xe3, 0x3e, 0xeb, 0x07, 0x95, 0x3e, 
  0x9e, 0x15, 0x67, 0xbe, 0x1a, 0x97, 0xc0, 0x3e, 0xc1, 0xff, 0xad, 0xbe, 
  0xb9, 0x34, 0x91, 0x3d, 0x10, 0x4b, 0x2a, 0x3e, 0x54, 0x53, 0x36, 0xbe, 
  0x92, 0x52, 0xc2, 0x3e, 0xe2, 0x00, 0xdc, 0xbe, 0xaf, 0x7b, 0x9f, 0x3e, 
  0xdb, 0x5b, 0x4e, 0xbe, 0xdc, 0x14, 0xc0, 0x3e, 0xdb, 0xdd, 0xa0, 0x3e, 
  0x40, 0x3a, 0x6c, 0xbd, 0xc3, 0x37, 0x4d, 0xbe, 0x20, 0x96, 0x56, 0x3e, 
  0xca, 0xe9, 0xc4, 0xbe, 0x46, 0xe9, 0xd7, 0x3e, 0x88, 0xaf, 0xca, 0x3e, 
  0x17, 0x3e, 0xa8, 0x3e, 0xd1, 0x6a, 0xc4, 0x3e, 0xea, 0xe9, 0x5f, 0x3e, 
  0x07, 0xdd, 0xb4, 0x3e, 0xde, 0x73, 0xe3, 0x3e, 0x71, 0x90, 0x95, 0x3e, 
  0x54, 0x68, 0x4d, 0xbd, 0x70, 0xa2, 0xc0, 0x3e, 0x30, 0x0c, 0x15, 0xbe, 
  0x9c, 0xdf, 0x80, 0xbd, 0xc9, 0x97, 0xdc, 0xbe, 0x0e, 0xb1, 0x87, 0x3e, 
  0x64, 0x9c, 0xc2, 0x3e, 0xe2, 0x6f, 0x80, 0xbe, 0x54, 0xef, 0x9f, 0x3e, 
  0xfd, 0x40, 0xa0, 0xbe, 0xca, 0x57, 0xc0, 0x3e, 0x79, 0x91, 0xa1, 0x3e, 
  0x75, 0xc6, 0x8c, 0xbe, 0xba, 0xff, 0xbd, 0x3c, 0x54, 0xbc, 0xc4, 0xbd, 
  0x37, 0x7b, 0x9f, 0xbe, 0x89, 0x7f, 0xd8, 0x3e, 0xaa, 0x2d, 0xcb, 0x3e, 
  0x23, 0xb8, 0xa8, 0x3e, 0x46, 0xc9, 0xc4, 0x3e, 0xe2, 0xf9, 0xff, 0xff, 
  0x04, 0x00, 0x00, 0x00, 0x00, 0x06, 0x00, 0x00, 0xc2, 0x34, 0x04, 0x3c, 
  0xae, 0xdd, 0x5a, 0xbd, 0x62, 0xb1, 0x36, 0xbe, 0x82, 0xc7, 0xb5, 0x3c, 
  0x5d, 0xcf, 0xa3, 0x3d, 0x9f, 0x87, 0x4b, 0xbd, 0xe0, 0x8d, 0xdd, 0x3c, 
  0x2e, 0xa3, 0x55, 0xbe, 0xe4, 0x6d, 0x07, 0x3d, 0x5b, 0xd0, 0xee, 0xbd, 
  0x13, 0x31, 0x4b, 0x3e, 0x20, 0xd9, 0x92, 0xbd, 0xfb, 0x9e, 0xde, 0x3c, 
  0x15, 0xbf, 0x3f, 0xbc, 0x22, 0x60, 0x6a, 0x3e, 0x45, 0x9b, 0xba, 0xbd, 
  0xb8, 0x82, 0x84, 0x3d, 0x06, 0x9a, 0xd0, 0xbd, 0x58, 0x9c, 0xc2, 0x3e, 
  0x03, 0xc1, 0xbf, 0xbe, 0x72, 0x6c, 0xf7, 0x3e, 0x84, 0x4a, 0x08, 0x3f, 
  0x80, 0xa8, 0x0e, 0x3e, 0xc3, 0x15, 0x10, 0x3d, 0x18, 0x6e, 0x96, 0x3e, 
  0x09, 0x76, 0xea, 0xbe, 0xe7, 0xe6, 0x10, 0xbd, 0x60, 0x86, 0x0c, 0x3e, 
  0x30, 0xa3, 0xe1, 0x3e, 0x5e, 0xae, 0x1e, 0x3e, 0xb6, 0x09, 0xac, 0x3e, 
  0x35, 0xf6, 0x88, 0x3e, 0x61, 0xb1, 0x9d, 0x3e, 0xf9, 0xb5, 0x0e, 0x3f, 
  0xd0, 0x6c, 0xea, 0xbd, 0x1e, 0xa0, 0xe4, 0xbe, 0xf4, 0xc1, 0x34, 0x3e, 
  0xcc, 0xaa, 0xd5, 0x3e, 0xdf, 0x81, 0x27, 0xbe, 0x1f, 0x55, 0x7e, 0x3e, 
  0x80, 0x82, 0x85, 0x3e, 0x0c, 0x2e, 0x31, 0x3e, 0x1b, 0xcc, 0xce, 0xbd, 
  0x66, 0x9e, 0x55, 0x3e, 0x0e, 0xcf, 0x3d, 0x3e, 0xf8, 0x6c, 0x90, 0xbd, 
  0x85, 0x27, 0x3a, 0x3e, 0x23, 0xf5, 0x2e, 0x3d, 0xc6, 0x79, 0xf1, 0x3e, 
  0x82, 0xb6, 0x91, 0xbc, 0xa4, 0x06, 0x85, 0x3e, 0x15, 0xd3, 0x13, 0xbf, 
  0x40, 0x6f, 0x5d, 0xbd, 0x92, 0x9f, 0xd4, 0x3d, 0x55, 0xbd, 0x02, 0x3f, 
  0x24, 0x45, 0x0a, 0x3f, 0x09, 0x6a, 0xb8, 0x3e, 0x41, 0xea, 0x00, 0xbe, 
  0x92, 0x3c, 0xdb, 0x3e, 0x73, 0xeb, 0xb6, 0x3d, 0x8d, 0x66, 0x79, 0x3e, 
  0x84, 0x19, 0xe1, 0x3e, 0xea, 0x6d, 0x0c, 0xbe, 0x4b, 0x6a, 0xe6, 0x3e, 
  0x68, 0x1b, 0x26, 0x3d, 0x2d, 0x9c, 0x86, 0xbd, 0x0d, 0x6d, 0x69, 0x3d, 
  0x19, 0x49, 0xaa, 0xbc, 0x30, 0xfc, 0x01, 0xbe, 0x7f, 0x59, 0xdc, 0xbc, 
  0x92, 0x8e, 0xba, 0xbd, 0xc0, 0x2d, 0x46, 0xbe, 0x40, 0x8c, 0xc3, 0x3c, 
  0xfd, 0x3d, 0x9b, 0xbd, 0xb5, 0xd3, 0xc2, 0x3d, 0xd1, 0xeb, 0x3c, 0x3d, 
  0xfa, 0xd2, 0xac, 0x3d, 0xd6, 0xd2, 0x2e, 0x3c, 0x9e, 0x93, 0x43, 0x3e, 
  0x88, 0x0b, 0x84, 0xbd, 0x13, 0x8d, 0x28, 0x3f, 0x87, 0x2f, 0x32, 0x3e, 
  0xaf, 0x1e, 0xf7, 0x3e, 0x5f, 0x8d, 0x3d, 0xbe, 0x2e, 0xa3, 0xa7, 0x3d, 
  0x75, 0x2a, 0x32, 0x3e, 0x0d, 0x23, 0x54, 0x3e, 0xff, 0x60, 0xd8, 0x3e, 
  0xc4, 0x83, 0xc1, 0xbd, 0x4b, 0xad, 0xf7, 0x3d, 0x51, 0xfc, 0x3f, 0x3e, 
  0xd8, 0xde, 0x06, 0x3d, 0x42, 0x61, 0x76, 0xbe, 0x64, 0x69, 0xa0, 0xbd, 
  0xae, 0xbc, 0x9b, 0x3e, 0xfe, 0x37, 0x6e, 0x3e, 0xb5, 0x97, 0x75, 0x3d, 
  0xe2, 0xdd, 0x89, 0xbe, 0x41, 0xc1, 0x56, 0x3e, 0xcf, 0x45, 0x51, 0x3e, 
  0x7f, 0x55, 0x8d, 0xbe, 0xf8, 0x4e, 0xc9, 0xbd, 0x8e, 0x76, 0xee, 0x3d, 
  0xc2, 0x09, 0x0e, 0x3e, 0x93, 0x27, 0x69, 0xbc, 0x9d, 0x65, 0x9f, 0x3c, 
  0x72, 0xce, 0x17, 0xbc, 0x74, 0x8a, 0xb2, 0xbb, 0xe4, 0xe2, 0x7e, 0xbd, 
  0x3c, 0xbf, 0x2f, 0xbe, 0x79, 0xe9, 0x2d, 0x3d, 0xb4, 0x31, 0x8a, 0xbd, 
  0xa6, 0x5f, 0xb4, 0xba, 0xfa, 0xeb, 0x98, 0xbd, 0x61, 0xe1, 0x60, 0x3d, 
  0x20, 0x40, 0x11, 0x3e, 0x83, 0x96, 0x31, 0x3d, 0xc2, 0x70, 0x8a, 0xb9, 
  0x94, 0xca, 0x2f, 0xbc, 0xc4, 0xf1, 0x31, 0xbd, 0x14, 0xac, 0xd9, 0xbb, 
  0xdb, 0x49, 0x25, 0xbe, 0xf7, 0x6d, 0xdf, 0x3c, 0x82, 0x6c, 0x5f, 0x3c, 
  0x78, 0x49, 0x42, 0xbc, 0x8a, 0x5c, 0x37, 0xbc, 0xdf, 0xca, 0x57, 0xbd, 
  0x7a, 0xcd, 0xb8, 0xbb, 0xdf, 0xe5, 0x1a, 0x3e, 0x13, 0x0a, 0x89, 0x3e, 
  0xaf, 0xf4, 0x6d, 0x3e, 0xa7, 0x6a, 0xce, 0x3d, 0x47, 0x5f, 0xda, 0xbd, 
  0x63, 0xd5, 0x61, 0x3d, 0xd2, 0xe6, 0xd9, 0x3d, 0x10, 0xde, 0xaa, 0xbd, 
  0xaa, 0xde, 0x79, 0xbe, 0xd0, 0x0c, 0x76, 0x3e, 0x25, 0x79, 0x86, 0x3e, 
  0x75, 0xa0, 0x44, 0xbe, 0x33, 0xf5, 0x8b, 0xbe, 0x75, 0x19, 0x52, 0xbe, 
  0x75, 0xdd, 0xfe, 0xbc, 0x5f, 0x9b, 0x2d, 0xbe, 0x81, 0x0f, 0xb3, 0xbd, 
  0x4d, 0xb3, 0x8f, 0xbe, 0xb4, 0x21, 0x06, 0x3e, 0x96, 0xa0, 0x6c, 0x3e, 
  0xf4, 0xa6, 0x95, 0x3d, 0xe6, 0x72, 0xae, 0xbc, 0x6c, 0xc6, 0x95, 0xbe, 
  0x8d, 0x29, 0x44, 0x3e, 0x37, 0x71, 0xf2, 0xbd, 0x13, 0x8b, 0x76, 0xbe, 
  0xb9, 0x70, 0x65, 0x3c, 0xdc, 0x37, 0x88, 0xbc, 0x91, 0x67, 0xf6, 0xbd, 
  0x0a, 0xe8, 0x37, 0xbc, 0x1a, 0x1b, 0x10, 0x3e, 0x7e, 0x3f, 0x12, 0x3e, 
  0xa4, 0xef, 0xd4, 0x3e, 0xde, 0x00, 0x15, 0x3e, 0x65, 0x5e, 0xb2, 0x3e, 
  0x43, 0xcd, 0x85, 0xbe, 0x0e, 0x9c, 0xf1, 0x3d, 0x75, 0xdc, 0x6c, 0x3e, 
  0xb9, 0x7a, 0xad, 0x3e, 0x04, 0x7b, 0x03, 0x3e, 0x3b, 0xe1, 0x85, 0x3d, 
  0x00, 0x71, 0x1c, 0xbe, 0x8c, 0xa5, 0x87, 0x3e, 0x81, 0x25, 0x8c, 0x3e, 
  0xfd, 0xc1, 0xf0, 0xbd, 0x5a, 0x34, 0xbf, 0xbd, 0x24, 0x6b, 0x3a, 0x3e, 
  0x20, 0x01, 0xe1, 0x3e, 0x2a, 0x4f, 0x0a, 0x3e, 0x79, 0xf0, 0x08, 0xbb, 
  0x81, 0x2b, 0x2a, 0xbb, 0x1f, 0x47, 0x02, 0x3b, 0x71, 0x68, 0xce, 0xbd, 
  0x29, 0x62, 0xdf, 0xbb, 0x15, 0x7c, 0xe0, 0xbb, 0x5c, 0xfa, 0xe6, 0xbb, 
  0xa8, 0xce, 0xdb, 0xbb, 0x2f, 0x8c, 0xac, 0xbc, 0x8a, 0x06, 0xe6, 0xbb, 
  0xa9, 0xbc, 0x2b, 0xbc, 0x3a, 0x93, 0xd4, 0x3b, 0x16, 0x33, 0xdf, 0xbb, 
  0x64, 0x84, 0x9d, 0x3c, 0xf8, 0xce, 0x91, 0xbd, 0x32, 0x63, 0x2b, 0x3e, 
  0xa6, 0xbb, 0xd8, 0x3d, 0x72, 0x3e, 0xe2, 0x3e, 0x39, 0x5c, 0x13, 0xbf, 
  0xf2, 0x1e, 0xc2, 0x3e, 0x26, 0xab, 0x0c, 0x3f, 0x89, 0x2b, 0x85, 0x3e, 
  0x53, 0x1f, 0xb0, 0x3e, 0x54, 0x1c, 0xf0, 0x3e, 0xe3, 0x4f, 0xda, 0xbe, 
  0x54, 0xea, 0x69, 0x3e, 0x3d, 0x3f, 0x07, 0x3d, 0x82, 0x2f, 0x93, 0x3e, 
  0xe2, 0xfb, 0xc7, 0x3e, 0xe0, 0xe0, 0x43, 0x3d, 0xb0, 0xa2, 0x22, 0x3e, 
  0xee, 0xd1, 0x76, 0xbe, 0xdf, 0xe1, 0x85, 0xbe, 0x60, 0xd4, 0x9b, 0x3e, 
  0x5c, 0xc6, 0x0b, 0xbe, 0x7d, 0xd2, 0x5b, 0x3d, 0x94, 0xd8, 0xa3, 0xbe, 
  0x0c, 0x43, 0x7b, 0xbd, 0x50, 0x3c, 0xfe, 0xbd, 0x92, 0x8f, 0xb5, 0x3d, 
  0xcb, 0x22, 0x08, 0x3e, 0xb8, 0xb4, 0x65, 0x3e, 0x4c, 0x00, 0x08, 0x3e, 
  0x9f, 0xd0, 0x02, 0xbe, 0xec, 0xc5, 0x79, 0xbe, 0xa4, 0x84, 0x9b, 0x3e, 
  0xd4, 0xbf, 0xb2, 0xbe, 0x30, 0x34, 0x02, 0x3f, 0x1e, 0xfe, 0x36, 0xbc, 
  0x86, 0x8b, 0x8e, 0x3e, 0xa3, 0x5c, 0x2b, 0xbe, 0x4b, 0x87, 0x83, 0x3e, 
  0x49, 0x45, 0x1f, 0x3f, 0x4d, 0x41, 0x80, 0x3e, 0xa0, 0xfa, 0x11, 0xbe, 
  0xd3, 0xbe, 0x10, 0xbe, 0x0a, 0xc4, 0x04, 0x3f, 0x9f, 0x58, 0x2c, 0x3e, 
  0x21, 0xf1, 0x10, 0x3a, 0x89, 0x47, 0x7f, 0xbd, 0xdf, 0x56, 0xc7, 0x3e, 
  0x84, 0x59, 0x00, 0xbc, 0xf0, 0x6b, 0xe6, 0x3e, 0x2a, 0xef, 0xc9, 0x3e, 
  0xc7, 0xf5, 0xb9, 0x3e, 0x5e, 0xa9, 0x43, 0x3e, 0xd7, 0xb1, 0x0c, 0x3e, 
  0x81, 0x03, 0xa9, 0xbd, 0x86, 0xc8, 0xae, 0x3e, 0x7a, 0x47, 0x19, 0x3e, 
  0x71, 0xc5, 0xb7, 0x3e, 0x78, 0xe0, 0x11, 0x3e, 0x27, 0x15, 0xb2, 0x3e, 
  0x82, 0x5e, 0xe3, 0x3d, 0xcb, 0xb3, 0x0a, 0xbd, 0x47, 0x5b, 0xad, 0x3c, 
  0x6d, 0xee, 0x9f, 0x3e, 0x99, 0xb4, 0x79, 0x3d, 0x8f, 0xd7, 0x35, 0x3e, 
  0x01, 0xb8, 0x1a, 0x3e, 0xed, 0xaf, 0x17, 0x3e, 0x75, 0x78, 0xa2, 0xbe, 
  0xe0, 0x45, 0x90, 0x3c, 0x38, 0x55, 0x89, 0x3e, 0xe4, 0xf6, 0x6d, 0x3d, 
  0x6c, 0x6e, 0x62, 0x3d, 0x63, 0x16, 0x86, 0xbe, 0x40, 0x8c, 0xdf, 0xbc, 
  0xff, 0x1d, 0xfa, 0x3d, 0x07, 0xae, 0x3c, 0x3d, 0x5f, 0xb9, 0xe8, 0xbd, 
  0x58, 0xd3, 0x23, 0x3d, 0x38, 0x53, 0x96, 0xbd, 0x4b, 0x0e, 0x66, 0xbe, 
  0x04, 0x59, 0x1c, 0x3e, 0x65, 0xfe, 0x9d, 0x3d, 0xa4, 0x6d, 0x73, 0xbc, 
  0x4a, 0xf4, 0xcc, 0xbd, 0xd9, 0x99, 0x48, 0x3e, 0x52, 0x62, 0x7a, 0xbe, 
  0x2f, 0x10, 0x14, 0x3d, 0x0d, 0xd7, 0x41, 0x3e, 0xce, 0xfb, 0x63, 0xbe, 
  0x27, 0xe1, 0x80, 0xbe, 0x64, 0x39, 0xc3, 0xbb, 0x7f, 0x6d, 0x60, 0x3e, 
  0x3f, 0x0d, 0xbc, 0xbd, 0x12, 0xf2, 0x86, 0x3e, 0xcb, 0x65, 0x70, 0xbe, 
  0xe4, 0x78, 0xf2, 0xbd, 0xe2, 0xd4, 0x7a, 0x3e, 0xd8, 0x0b, 0x21, 0xbd, 
  0xf5, 0x2c, 0x01, 0xbe, 0xd3, 0x8f, 0x12, 0x3e, 0x3b, 0xee, 0x07, 0x3e, 
  0xbd, 0xf1, 0x78, 0x3e, 0xe5, 0x61, 0xb9, 0xbd, 0x69, 0xa2, 0xa1, 0x3d, 
  0x73, 0xf4, 0x5b, 0xbe, 0x5b, 0x37, 0xb7, 0x3d, 0xeb, 0x1b, 0x3a, 0xbe, 
  0xd1, 0xfe, 0x26, 0xbd, 0xca, 0x0d, 0x3b, 0xbd, 0xac, 0x1f, 0xbf, 0x3d, 
  0xcd, 0x75, 0xa3, 0x3d, 0x43, 0x3b, 0x85, 0xbe, 0x0d, 0xee, 0xa7, 0x3c, 
  0xd4, 0x34, 0xf4, 0x3d, 0xd4, 0x43, 0x7e, 0xbd, 0x9b, 0x20, 0xea, 0x3d, 
  0x80, 0x10, 0x43, 0xbd, 0x5c, 0x77, 0x55, 0xbe, 0x1e, 0xb4, 0x1c, 0x3e, 
  0xed, 0xd6, 0x93, 0xbe, 0xe0, 0x72, 0xd3, 0xbd, 0x53, 0xff, 0xa1, 0xbb, 
  0x60, 0x3c, 0x68, 0xbe, 0xef, 0xc6, 0x24, 0x3e, 0xc7, 0x93, 0x5f, 0x3e, 
  0x22, 0x6d, 0xa2, 0x3d, 0xda, 0x97, 0x7d, 0xbe, 0xcc, 0x46, 0x80, 0x3d, 
  0xa5, 0xfb, 0x97, 0x3d, 0xf1, 0xdd, 0x24, 0x3e, 0xa9, 0x53, 0x07, 0xbe, 
  0x3e, 0x6f, 0xb4, 0xbd, 0x08, 0x31, 0xf9, 0xbe, 0x94, 0xf4, 0x92, 0x3d, 
  0x82, 0x22, 0x43, 0x3e, 0x5b, 0xed, 0xeb, 0x3e, 0x61, 0x5e, 0xde, 0x3e, 
  0x8e, 0x0c, 0x96, 0x3e, 0x73, 0x7a, 0xb3, 0xbe, 0x8f, 0xe6, 0xc3, 0x3e, 
  0x67, 0x12, 0x94, 0x3e, 0xfb, 0x06, 0x1d, 0xbc, 0x1a, 0xd2, 0x02, 0x3f, 
  0x58, 0x0d, 0x96, 0x3e, 0x6d, 0x7f, 0x31, 0xbe, 0x22, 0xd3, 0xd7, 0x3e, 
  0x52, 0x7e, 0xe1, 0x3d, 0x1f, 0x82, 0xea, 0x3e, 0x3e, 0x57, 0xb8, 0xbe, 
  0x8a, 0x11, 0xa1, 0x3e, 0x88, 0x40, 0x25, 0x3e, 0xb6, 0x89, 0x8a, 0x3a, 
  0xf6, 0x35, 0xc3, 0xbd, 0xa1, 0x24, 0xd0, 0x3d, 0x4f, 0x17, 0xb2, 0xbe, 
  0xac, 0x30, 0x96, 0x3e, 0x0c, 0x44, 0xa5, 0x3c, 0x0e, 0x56, 0x07, 0x3f, 
  0x66, 0x6f, 0x21, 0x3e, 0xd3, 0xfc, 0x1f, 0x3e, 0xab, 0x23, 0x6f, 0x3e, 
  0x64, 0x73, 0xce, 0x3e, 0x22, 0x8f, 0xb5, 0x3d, 0xed, 0xbd, 0xcf, 0x3e, 
  0xe2, 0x30, 0x3d, 0xbf, 0xb8, 0x15, 0x97, 0xbe, 0x30, 0x68, 0x1b, 0x3d, 
  0xec, 0x68, 0xe5, 0x3e, 0xdd, 0xa2, 0x8f, 0x3e, 0x04, 0x6b, 0x9a, 0x3e, 
  0x4a, 0x0c, 0x19, 0xbe, 0xe3, 0xc5, 0xe6, 0x3e, 0xba, 0x50, 0xde, 0x3e, 
  0x93, 0x41, 0xbb, 0x3e, 0x94, 0x32, 0x25, 0xbd, 0x3c, 0xd5, 0x55, 0x3e, 
  0xac, 0x31, 0x03, 0x3e, 0x74, 0x2e, 0xfc, 0x3e, 0x25, 0xa6, 0x0d, 0x3e, 
  0xd0, 0x96, 0x46, 0xbd, 0x5e, 0xf3, 0xae, 0xbe, 0xfc, 0x9f, 0xdb, 0x3e, 
  0x67, 0x9f, 0x29, 0x3f, 0xec, 0x2c, 0x99, 0x3e, 0xfc, 0x0c, 0xf8, 0x3b, 
  0x07, 0x09, 0x4a, 0x3e, 0x27, 0xd5, 0x84, 0x3e, 0x73, 0xd5, 0xe4, 0x3d, 
  0x1a, 0x52, 0xb6, 0x3d, 0x25, 0x5e, 0xbd, 0x3e, 0xe1, 0x93, 0xcc, 0x3e, 
  0xb3, 0x4a, 0x78, 0xbe, 0xd6, 0x61, 0xd5, 0xbd, 0xee, 0xff, 0xff, 0xff, 
  0x04, 0x00, 0x00, 0x00, 0x04, 0x00, 0x00, 0x00, 0xfd, 0xff, 0xff, 0xff, 
  0x00, 0x00, 0x06, 0x00, 0x08, 0x00, 0x04, 0x00, 0x06, 0x00, 0x00, 0x00, 
  0x04, 0x00, 0x00, 0x00, 0x04, 0x00, 0x00, 0x00, 0x01, 0x00, 0x00, 0x00, 
  0x58, 0xf2, 0xff, 0xff, 0x5c, 0xf2, 0xff, 0xff, 0x0f, 0x00, 0x00, 0x00, 
  0x4d, 0x4c, 0x49, 0x52, 0x20, 0x43, 0x6f, 0x6e, 0x76, 0x65, 0x72, 0x74, 
  0x65, 0x64, 0x2e, 0x00, 0x01, 0x00, 0x00, 0x00, 0x14, 0x00, 0x00, 0x00, 
  0x00, 0x00, 0x0e, 0x00, 0x18, 0x00, 0x14, 0x00, 0x10, 0x00, 0x0c, 0x00, 
  0x08, 0x00, 0x04, 0x00, 0x0e, 0x00, 0x00, 0x00, 0x14, 0x00, 0x00, 0x00, 
  0x1c, 0x00, 0x00, 0x00, 0x54, 0x02, 0x00, 0x00, 0x58, 0x02, 0x00, 0x00, 
  0x5c, 0x02, 0x00, 0x00, 0x04, 0x00, 0x00, 0x00, 0x6d, 0x61, 0x69, 0x6e, 
  0x00, 0x00, 0x00, 0x00, 0x09, 0x00, 0x00, 0x00, 0x0c, 0x02, 0x00, 0x00, 
  0xa8, 0x01, 0x00, 0x00, 0x70, 0x01, 0x00, 0x00, 0x34, 0x01, 0x00, 0x00, 
  0xec, 0x00, 0x00, 0x00, 0xc4, 0x00, 0x00, 0x00, 0x90, 0x00, 0x00, 0x00, 
  0x4c, 0x00, 0x00, 0x00, 0x04, 0x00, 0x00, 0x00, 0x86, 0xfe, 0xff, 0xff, 
  0x14, 0x00, 0x00, 0x00, 0x00, 0x00, 0x00, 0x08, 0x10, 0x00, 0x00, 0x00, 
  0x14, 0x00, 0x00, 0x00, 0x04, 0x00, 0x00, 0x00, 0xf0, 0xf2, 0xff, 0xff, 
  0x01, 0x00, 0x00, 0x00, 0x15, 0x00, 0x00, 0x00, 0x03, 0x00, 0x00, 0x00, 
  0x14, 0x00, 0x00, 0x00, 0x04, 0x00, 0x00, 0x00, 0x09, 0x00, 0x00, 0x00, 
  0x00, 0x00, 0x0e, 0x00, 0x1a, 0x00, 0x14, 0x00, 0x10, 0x00, 0x0c, 0x00, 
  0x0b, 0x00, 0x04, 0x00, 0x0e, 0x00, 0x00, 0x00, 0x1c, 0x00, 0x00, 0x00, 
  0x00, 0x00, 0x00, 0x08, 0x1c, 0x00, 0x00, 0x00, 0x20, 0x00, 0x00, 0x00, 
  0x04, 0x00, 0x00, 0x00, 0x00, 0x00, 0x06, 0x00, 0x08, 0x00, 0x07, 0x00, 
  0x06, 0x00, 0x00, 0x00, 0x00, 0x00, 0x00, 0x01, 0x01, 0x00, 0x00, 0x00, 
  0x14, 0x00, 0x00, 0x00, 0x03, 0x00, 0x00, 0x00, 0x13, 0x00, 0x00, 0x00, 
  0x03, 0x00, 0x00, 0x00, 0x06, 0x00, 0x00, 0x00, 0x0a, 0xff, 0xff, 0xff, 
  0x14, 0x00, 0x00, 0x00, 0x00, 0x00, 0x00, 0x1b, 0x10, 0x00, 0x00, 0x00, 
  0x14, 0x00, 0x00, 0x00, 0x03, 0x00, 0x00, 0x00, 0x74, 0xf3, 0xff, 0xff, 
  0x01, 0x00, 0x00, 0x00, 0x13, 0x00, 0x00, 0x00, 0x02, 0x00, 0x00, 0x00, 
  0x12, 0x00, 0x00, 0x00, 0x01, 0x00, 0x00, 0x00, 0x6a, 0xff, 0xff, 0xff, 
  0x0c, 0x00, 0x00, 0x00, 0x10, 0x00, 0x00, 0x00, 0x02, 0x00, 0x00, 0x00, 
  0x01, 0x00, 0x00, 0x00, 0x12, 0x00, 0x00, 0x00, 0x02, 0x00, 0x00, 0x00, 
  0x11, 0x00, 0x00, 0x00, 0x0a, 0x00, 0x00, 0x00, 0x5e, 0xff, 0xff, 0xff, 
  0x14, 0x00, 0x00, 0x00, 0x00, 0x00, 0x00, 0x01, 0x20, 0x00, 0x00, 0x00, 
  0x24, 0x00, 0x00, 0x00, 0x01, 0x00, 0x00, 0x00, 0x50, 0xff, 0xff, 0xff, 
  0x00, 0x00, 0x00, 0x01, 0x01, 0x00, 0x00, 0x00, 0x01, 0x00, 0x00, 0x00, 
  0x00, 0x00, 0x00, 0x01, 0x01, 0x00, 0x00, 0x00, 0x11, 0x00, 0x00, 0x00, 
  0x03, 0x00, 0x00, 0x00, 0x10, 0x00, 0x00, 0x00, 0x0c, 0x00, 0x00, 0x00, 
  0x07, 0x00, 0x00, 0x00, 0x42, 0xff, 0xff, 0xff, 0x10, 0x00, 0x00, 0x00, 
  0x00, 0x00, 0x00, 0x34, 0x0c, 0x00, 0x00, 0x00, 0x10, 0x00, 0x00, 0x00, 
  0x08, 0xf4, 0xff, 0xff, 0x01, 0x00, 0x00, 0x00, 0x10, 0x00, 0x00, 0x00, 
  0x02, 0x00, 0x00, 0x00, 0x0f, 0x00, 0x00, 0x00, 0x02, 0x00, 0x00, 0x00, 
  0x00, 0x00, 0x0a, 0x00, 0x10, 0x00, 0x0c, 0x00, 0x08, 0x00, 0x04, 0x00, 
  0x0a, 0x00, 0x00, 0x00, 0x0c, 0x00, 0x00, 0x00, 0x10, 0x00, 0x00, 0x00, 
  0x02, 0x00, 0x00, 0x00, 0x01, 0x00, 0x00, 0x00, 0x0f, 0x00, 0x00, 0x00, 
  0x02, 0x00, 0x00, 0x00, 0x0e, 0x00, 0x00, 0x00, 0x0b, 0x00, 0x00, 0x00, 
  0x00, 0x00, 0x0e, 0x00, 0x18, 0x00, 0x14, 0x00, 0x10, 0x00, 0x0c, 0x00, 
  0x0b, 0x00, 0x04, 0x00, 0x0e, 0x00, 0x00, 0x00, 0x20, 0x00, 0x00, 0x00, 
  0x00, 0x00, 0x00, 0x01, 0x2c, 0x00, 0x00, 0x00, 0x30, 0x00, 0x00, 0x00, 
  0x01, 0x00, 0x00, 0x00, 0x0c, 0x00, 0x14, 0x00, 0x13, 0x00, 0x0c, 0x00, 
  0x08, 0x00, 0x07, 0x00, 0x0c, 0x00, 0x00, 0x00, 0x00, 0x00, 0x00, 0x01, 
  0x01, 0x00, 0x00, 0x00, 0x01, 0x00, 0x00, 0x00, 0x00, 0x00, 0x00, 0x01, 
  0x01, 0x00, 0x00, 0x00, 0x0e, 0x00, 0x00, 0x00, 0x03, 0x00, 0x00, 0x00, 
  0x0d, 0x00, 0x00, 0x00, 0x05, 0x00, 0x00, 0x00, 0x08, 0x00, 0x00, 0x00, 
  0x00, 0x00, 0x0e, 0x00, 0x14, 0x00, 0x00, 0x00, 0x10, 0x00, 0x0c, 0x00, 
  0x0b, 0x00, 0x04, 0x00, 0x0e, 0x00, 0x00, 0x00, 0x10, 0x00, 0x00, 0x00, 
  0x00, 0x00, 0x00, 0x34, 0x0c, 0x00, 0x00, 0x00, 0x10, 0x00, 0x00, 0x00, 
  0xd4, 0xf4, 0xff, 0xff, 0x01, 0x00, 0x00, 0x00, 0x0d, 0x00, 0x00, 0x00, 
  0x02, 0x00, 0x00, 0x00, 0x00, 0x00, 0x00, 0x00, 0x02, 0x00, 0x00, 0x00, 
  0x01, 0x00, 0x00, 0x00, 0x15, 0x00, 0x00, 0x00, 0x01, 0x00, 0x00, 0x00, 
  0x00, 0x00, 0x00, 0x00, 0x16, 0x00, 0x00, 0x00, 0xd4, 0x0a, 0x00, 0x00, 
  0x80, 0x0a, 0x00, 0x00, 0x2c, 0x0a, 0x00, 0x00, 0xec, 0x09, 0x00, 0x00, 
  0x94, 0x09, 0x00, 0x00, 0x4c, 0x09, 0x00, 0x00, 0x10, 0x09, 0x00, 0x00, 
  0xd4, 0x08, 0x00, 0x00, 0x98, 0x08, 0x00, 0x00, 0x5c, 0x08, 0x00, 0x00, 
  0x1c, 0x08, 0x00, 0x00, 0xd8, 0x07, 0x00, 0x00, 0xac, 0x06, 0x00, 0x00, 
  0x24, 0x06, 0x00, 0x00, 0x04, 0x05, 0x00, 0x00, 0x14, 0x04, 0x00, 0x00, 
  0x8c, 0x03, 0x00, 0x00, 0x6c, 0x02, 0x00, 0x00, 0x7c, 0x01, 0x00, 0x00, 
  0x10, 0x01, 0x00, 0x00, 0x60, 0x00, 0x00, 0x00, 0x04, 0x00, 0x00, 0x00, 
  0x9a, 0xf5, 0xff, 0xff, 0x00, 0x00, 0x00, 0x01, 0x14, 0x00, 0x00, 0x00, 
  0x1c, 0x00, 0x00, 0x00, 0x1c, 0x00, 0x00, 0x00, 0x16, 0x00, 0x00, 0x00, 
  0x34, 0x00, 0x00, 0x00, 0x02, 0x00, 0x00, 0x00, 0xff, 0xff, 0xff, 0xff, 
  0x03, 0x00, 0x00, 0x00, 0x80, 0xf5, 0xff, 0xff, 0x1b, 0x00, 0x00, 0x00, 
  0x53, 0x74, 0x61, 0x74, 0x65, 0x66, 0x75, 0x6c, 0x50, 0x61, 0x72, 0x74, 
  0x69, 0x74, 0x69, 0x6f, 0x6e, 0x65, 0x64, 0x43, 0x61, 0x6c, 0x6c, 0x5f, 
  0x31, 0x3a, 0x30, 0x00, 0x02, 0x00, 0x00, 0x00, 0x01, 0x00, 0x00, 0x00, 
  0x03, 0x00, 0x00, 0x00, 0xf2, 0xf5, 0xff, 0xff, 0x00, 0x00, 0x00, 0x01, 
  0x14, 0x00, 0x00, 0x00, 0x1c, 0x00, 0x00, 0x00, 0x1c, 0x00, 0x00, 0x00, 
  0x15, 0x00, 0x00, 0x00, 0x88, 0x00, 0x00, 0x00, 0x02, 0x00, 0x00, 0x00, 
  0xff, 0xff, 0xff, 0xff, 0x18, 0x00, 0x00, 0x00, 0xd8, 0xf5, 0xff, 0xff, 
  0x6d, 0x00, 0x00, 0x00, 0x43, 0x4e, 0x4e, 0x31, 0x44, 0x5f, 0x54, 0x65, 
  0x6d, 0x70, 0x65, 0x72, 0x61, 0x74, 0x75, 0x72, 0x65, 0x5f, 0x31, 0x2f, 
  0x64, 0x65, 0x6e, 0x73, 0x65, 0x5f, 0x31, 0x5f, 0x31, 0x2f, 0x4d, 0x61, 
  0x74, 0x4d, 0x75, 0x6c, 0x3b, 0x43, 0x4e, 0x4e, 0x31, 0x44, 0x5f, 0x54, 
  0x65, 0x6d, 0x70, 0x65, 0x72, 0x61, 0x74, 0x75, 0x72, 0x65, 0x5f, 0x31, 
  0x2f, 0x64, 0x65, 0x6e, 0x73, 0x65, 0x5f, 0x31, 0x5f, 0x31, 0x2f, 0x52, 
  0x65, 0x6c, 0x75, 0x3b, 0x43, 0x4e, 0x4e, 0x31, 0x44, 0x5f, 0x54, 0x65, 
  0x6d, 0x70, 0x65, 0x72, 0x61, 0x74, 0x75, 0x72, 0x65, 0x5f, 0x31, 0x2f, 
  0x64, 0x65, 0x6e, 0x73, 0x65, 0x5f, 0x31, 0x5f, 0x31, 0x2f, 0x42, 0x69, 
  0x61, 0x73, 0x41, 0x64, 0x64, 0x00, 0x00, 0x00, 0x02, 0x00, 0x00, 0x00, 
  0x01, 0x00, 0x00, 0x00, 0x18, 0x00, 0x00, 0x00, 0x9e, 0xf6, 0xff, 0xff, 
  0x00, 0x00, 0x00, 0x01, 0x14, 0x00, 0x00, 0x00, 0x1c, 0x00, 0x00, 0x00, 
  0x1c, 0x00, 0x00, 0x00, 0x14, 0x00, 0x00, 0x00, 0x44, 0x00, 0x00, 0x00, 
  0x02, 0x00, 0x00, 0x00, 0xff, 0xff, 0xff, 0xff, 0x10, 0x00, 0x00, 0x00, 
  0x84, 0xf6, 0xff, 0xff, 0x2a, 0x00, 0x00, 0x00, 0x43, 0x4e, 0x4e, 0x31, 
  0x44, 0x5f, 0x54, 0x65, 0x6d, 0x70, 0x65, 0x72, 0x61, 0x74, 0x75, 0x72, 
  0x65, 0x5f, 0x31, 0x2f, 0x67, 0x6c, 0x6f, 0x62, 0x61, 0x6c, 0x5f, 0x61, 
  0x76, 0x67, 0x5f, 0x70, 0x6f, 0x6f, 0x6c, 0x5f, 0x31, 0x2f, 0x4d, 0x65, 
  0x61, 0x6e, 0x00, 0x00, 0x02, 0x00, 0x00, 0x00, 0x01, 0x00, 0x00, 0x00, 
  0x10, 0x00, 0x00, 0x00, 0x06, 0xf7, 0xff, 0xff, 0x00, 0x00, 0x00, 0x01, 
  0x14, 0x00, 0x00, 0x00, 0x20, 0x00, 0x00, 0x00, 0x20, 0x00, 0x00, 0x00, 
  0x13, 0x00, 0x00, 0x00, 0xc4, 0x00, 0x00, 0x00, 0x03, 0x00, 0x00, 0x00, 
  0xff, 0xff, 0xff, 0xff, 0x06, 0x00, 0x00, 0x00, 0x10, 0x00, 0x00, 0x00, 
  0xf0, 0xf6, 0xff, 0xff, 0xa4, 0x00, 0x00, 0x00, 0x43, 0x4e, 0x4e, 0x31, 
  0x44, 0x5f, 0x54, 0x65, 0x6d, 0x70, 0x65, 0x72, 0x61, 0x74, 0x75, 0x72, 
  0x65, 0x5f, 0x31, 0x2f, 0x63, 0x6f, 0x6e, 0x76, 0x31, 0x64, 0x5f, 0x32, 
  0x5f, 0x31, 0x2f, 0x52, 0x65, 0x6c, 0x75, 0x3b, 0x43, 0x4e, 0x4e, 0x31, 
  0x44, 0x5f, 0x54, 0x65, 0x6d, 0x70, 0x65, 0x72, 0x61, 0x74, 0x75, 0x72, 
  0x65, 0x5f, 0x31, 0x2f, 0x63, 0x6f, 0x6e, 0x76, 0x31, 0x64, 0x5f, 0x32, 
  0x5f, 0x31, 0x2f, 0x42, 0x69, 0x61, 0x73, 0x41, 0x64, 0x64, 0x3b, 0x43, 
  0x4e, 0x4e, 0x31, 0x44, 0x5f, 0x54, 0x65, 0x6d, 0x70, 0x65, 0x72, 0x61, 
  0x74, 0x75, 0x72, 0x65, 0x5f, 0x31, 0x2f, 0x63, 0x6f, 0x6e, 0x76, 0x31, 
  0x64, 0x5f, 0x32, 0x5f, 0x31, 0x2f, 0x63, 0x6f, 0x6e, 0x76, 0x6f, 0x6c, 
  0x75, 0x74, 0x69, 0x6f, 0x6e, 0x2f, 0x53, 0x71, 0x75, 0x65, 0x65, 0x7a, 
  0x65, 0x3b, 0x43, 0x4e, 0x4e, 0x31, 0x44, 0x5f, 0x54, 0x65, 0x6d, 0x70, 
  0x65, 0x72, 0x61, 0x74, 0x75, 0x72, 0x65, 0x5f, 0x31, 0x2f, 0x63, 0x6f, 
  0x6e, 0x76, 0x31, 0x64, 0x5f, 0x32, 0x5f, 0x31, 0x2f, 0x53, 0x71, 0x75, 
  0x65, 0x65, 0x7a, 0x65, 0x00, 0x00, 0x00, 0x00, 0x03, 0x00, 0x00, 0x00, 
  0x01, 0x00, 0x00, 0x00, 0x06, 0x00, 0x00, 0x00, 0x10, 0x00, 0x00, 0x00, 
  0xf2, 0xf7, 0xff, 0xff, 0x00, 0x00, 0x00, 0x01, 0x14, 0x00, 0x00, 0x00, 
  0x24, 0x00, 0x00, 0x00, 0x24, 0x00, 0x00, 0x00, 0x12, 0x00, 0x00, 0x00, 
  0xf0, 0x00, 0x00, 0x00, 0x04, 0x00, 0x00, 0x00, 0xff, 0xff, 0xff, 0xff, 
  0x01, 0x00, 0x00, 0x00, 0x06, 0x00, 0x00, 0x00, 0x10, 0x00, 0x00, 0x00, 
  0xe0, 0xf7, 0xff, 0xff, 0xcf, 0x00, 0x00, 0x00, 0x43, 0x4e, 0x4e, 0x31, 
  0x44, 0x5f, 0x54, 0x65, 0x6d, 0x70, 0x65, 0x72, 0x61, 0x74, 0x75, 0x72, 
  0x65, 0x5f, 0x31, 0x2f, 0x63, 0x6f, 0x6e, 0x76, 0x31, 0x64, 0x5f, 0x32, 
  0x5f, 0x31, 0x2f, 0x52, 0x65, 0x6c, 0x75, 0x3b, 0x43, 0x4e, 0x4e, 0x31, 
  0x44, 0x5f, 0x54, 0x65, 0x6d, 0x70, 0x65, 0x72, 0x61, 0x74, 0x75, 0x72, 
  0x65, 0x5f, 0x31, 0x2f, 0x63, 0x6f, 0x6e, 0x76, 0x31, 0x64, 0x5f, 0x32, 
  0x5f, 0x31, 0x2f, 0x42, 0x69, 0x61, 0x73, 0x41, 0x64, 0x64, 0x3b, 0x43, 
  0x4e, 0x4e, 0x31, 0x44, 0x5f, 0x54, 0x65, 0x6d, 0x70, 0x65, 0x72, 0x61, 
  0x74, 0x75, 0x72, 0x65, 0x5f, 0x31, 0x2f, 0x63, 0x6f, 0x6e, 0x76, 0x31, 
  0x64, 0x5f, 0x32, 0x5f, 0x31, 0x2f, 0x63, 0x6f, 0x6e, 0x76, 0x6f, 0x6c, 
  0x75, 0x74, 0x69, 0x6f, 0x6e, 0x2f, 0x53, 0x71, 0x75, 0x65, 0x65, 0x7a, 
  0x65, 0x3b, 0x43, 0x4e, 0x4e, 0x31, 0x44, 0x5f, 0x54, 0x65, 0x6d, 0x70, 
  0x65, 0x72, 0x61, 0x74, 0x75, 0x72, 0x65, 0x5f, 0x31, 0x2f, 0x63, 0x6f, 
  0x6e, 0x76, 0x31, 0x64, 0x5f, 0x32, 0x5f, 0x31, 0x2f, 0x53, 0x71, 0x75, 
  0x65, 0x65, 0x7a, 0x65, 0x3b, 0x43, 0x4e, 0x4e, 0x31, 0x44, 0x5f, 0x54, 
  0x65, 0x6d, 0x70, 0x65, 0x72, 0x61, 0x74, 0x75, 0x72, 0x65, 0x5f, 0x31, 
  0x2f, 0x63, 0x6f, 0x6e, 0x76, 0x31, 0x64, 0x5f, 0x32, 0x5f, 0x31, 0x2f, 
  0x63, 0x6f, 0x6e, 0x76, 0x6f, 0x6c, 0x75, 0x74, 0x69, 0x6f, 0x6e, 0x00, 
  0x04, 0x00, 0x00, 0x00, 0x01, 0x00, 0x00, 0x00, 0x01, 0x00, 0x00, 0x00, 
  0x06, 0x00, 0x00, 0x00, 0x10, 0x00, 0x00, 0x00, 0x0e, 0xf9, 0xff, 0xff, 
  0x00, 0x00, 0x00, 0x01, 0x14, 0x00, 0x00, 0x00, 0x24, 0x00, 0x00, 0x00, 
  0x24, 0x00, 0x00, 0x00, 0x11, 0x00, 0x00, 0x00, 0x58, 0x00, 0x00, 0x00, 
  0x04, 0x00, 0x00, 0x00, 0xff, 0xff, 0xff, 0xff, 0x01, 0x00, 0x00, 0x00, 
  0x08, 0x00, 0x00, 0x00, 0x18, 0x00, 0x00, 0x00, 0xfc, 0xf8, 0xff, 0xff, 
  0x35, 0x00, 0x00, 0x00, 0x43, 0x4e, 0x4e, 0x31, 0x44, 0x5f, 0x54, 0x65, 
  0x6d, 0x70, 0x65, 0x72, 0x61, 0x74, 0x75, 0x72, 0x65, 0x5f, 0x31, 0x2f, 
  0x63, 0x6f, 0x6e, 0x76, 0x31, 0x64, 0x5f, 0x32, 0x5f, 0x31, 0x2f, 0x63, 
  0x6f, 0x6e, 0x76, 0x6f, 0x6c, 0x75, 0x74, 0x69, 0x6f, 0x6e, 0x2f, 0x45, 
  0x78, 0x70, 0x61, 0x6e, 0x64, 0x44, 0x69, 0x6d, 0x73, 0x00, 0x00, 0x00, 
  0x04, 0x00, 0x00, 0x00, 0x01, 0x00, 0x00, 0x00, 0x01, 0x00, 0x00, 0x00, 
  0x08, 0x00, 0x00, 0x00, 0x18, 0x00, 0x00, 0x00, 0x92, 0xf9, 0xff, 0xff, 
  0x00, 0x00, 0x00, 0x01, 0x14, 0x00, 0x00, 0x00, 0x20, 0x00, 0x00, 0x00, 
  0x20, 0x00, 0x00, 0x00, 0x10, 0x00, 0x00, 0x00, 0xc4, 0x00, 0x00, 0x00, 
  0x03, 0x00, 0x00, 0x00, 0xff, 0xff, 0xff, 0xff, 0x08, 0x00, 0x00, 0x00, 
  0x18, 0x00, 0x00, 0x00, 0x7c, 0xf9, 0xff, 0xff, 0xa4, 0x00, 0x00, 0x00, 
  0x43, 0x4e, 0x4e, 0x31, 0x44, 0x5f, 0x54, 0x65, 0x6d, 0x70, 0x65, 0x72, 
  0x61, 0x74, 0x75, 0x72, 0x65, 0x5f, 0x31, 0x2f, 0x63, 0x6f, 0x6e, 0x76, 
  0x31, 0x64, 0x5f, 0x31, 0x5f, 0x31, 0x2f, 0x52, 0x65, 0x6c, 0x75, 0x3b, 
  0x43, 0x4e, 0x4e, 0x31, 0x44, 0x5f, 0x54, 0x65, 0x6d, 0x70, 0x65, 0x72, 
  0x61, 0x74, 0x75, 0x72, 0x65, 0x5f, 0x31, 0x2f, 0x63, 0x6f, 0x6e, 0x76, 
  0x31, 0x64, 0x5f, 0x31, 0x5f, 0x31, 0x2f, 0x42, 0x69, 0x61, 0x73, 0x41, 
  0x64, 0x64, 0x3b, 0x43, 0x4e, 0x4e, 0x31, 0x44, 0x5f, 0x54, 0x65, 0x6d, 
  0x70, 0x65, 0x72, 0x61, 0x74, 0x75, 0x72, 0x65, 0x5f, 0x31, 0x2f, 0x63, 
  0x6f, 0x6e, 0x76, 0x31, 0x64, 0x5f, 0x31, 0x5f, 0x31, 0x2f, 0x63, 0x6f, 
  0x6e, 0x76, 0x6f, 0x6c, 0x75, 0x74, 0x69, 0x6f, 0x6e, 0x2f, 0x53, 0x71, 
  0x75, 0x65, 0x65, 0x7a, 0x65, 0x3b, 0x43, 0x4e, 0x4e, 0x31, 0x44, 0x5f, 
  0x54, 0x65, 0x6d, 0x70, 0x65, 0x72, 0x61, 0x74, 0x75, 0x72, 0x65, 0x5f, 
  0x31, 0x2f, 0x63, 0x6f, 0x6e, 0x76, 0x31, 0x64, 0x5f, 0x31, 0x5f, 0x31, 
  0x2f, 0x53, 0x71, 0x75, 0x65, 0x65, 0x7a, 0x65, 0x00, 0x00, 0x00, 0x00, 
  0x03, 0x00, 0x00, 0x00, 0x01, 0x00, 0x00, 0x00, 0x08, 0x00, 0x00, 0x00, 
  0x18, 0x00, 0x00, 0x00, 0x7e, 0xfa, 0xff, 0xff, 0x00, 0x00, 0x00, 0x01, 
  0x14, 0x00, 0x00, 0x00, 0x24, 0x00, 0x00, 0x00, 0x24, 0x00, 0x00, 0x00, 
  0x0f, 0x00, 0x00, 0x00, 0xf0, 0x00, 0x00, 0x00, 0x04, 0x00, 0x00, 0x00, 
  0xff, 0xff, 0xff, 0xff, 0x01, 0x00, 0x00, 0x00, 0x08, 0x00, 0x00, 0x00, 
  0x18, 0x00, 0x00, 0x00, 0x6c, 0xfa, 0xff, 0xff, 0xcf, 0x00, 0x00, 0x00, 
  0x43, 0x4e, 0x4e, 0x31, 0x44, 0x5f, 0x54, 0x65, 0x6d, 0x70, 0x65, 0x72, 
  0x61, 0x74, 0x75, 0x72, 0x65, 0x5f, 0x31, 0x2f, 0x63, 0x6f, 0x6e, 0x76, 
  0x31, 0x64, 0x5f, 0x31, 0x5f, 0x31, 0x2f, 0x52, 0x65, 0x6c, 0x75, 0x3b, 
  0x43, 0x4e, 0x4e, 0x31, 0x44, 0x5f, 0x54, 0x65, 0x6d, 0x70, 0x65, 0x72, 
  0x61, 0x74, 0x75, 0x72, 0x65, 0x5f, 0x31, 0x2f, 0x63, 0x6f, 0x6e, 0x76, 
  0x31, 0x64, 0x5f, 0x31, 0x5f, 0x31, 0x2f, 0x42, 0x69, 0x61, 0x73, 0x41, 
  0x64, 0x64, 0x3b, 0x43, 0x4e, 0x4e, 0x31, 0x44, 0x5f, 0x54, 0x65, 0x6d, 
  0x70, 0x65, 0x72, 0x61, 0x74, 0x75, 0x72, 0x65, 0x5f, 0x31, 0x2f, 0x63, 
  0x6f, 0x6e, 0x76, 0x31, 0x64, 0x5f, 0x31, 0x5f, 0x31, 0x2f, 0x63, 0x6f, 
  0x6e, 0x76, 0x6f, 0x6c, 0x75, 0x74, 0x69, 0x6f, 0x6e, 0x2f, 0x53, 0x71, 
  0x75, 0x65, 0x65, 0x7a, 0x65, 0x3b, 0x43, 0x4e, 0x4e, 0x31, 0x44, 0x5f, 
  0x54, 0x65, 0x6d, 0x70, 0x65, 0x72, 0x61, 0x74, 0x75, 0x72, 0x65, 0x5f, 
  0x31, 0x2f, 0x63, 0x6f, 0x6e, 0x76, 0x31, 0x64, 0x5f, 0x31, 0x5f, 0x31, 
  0x2f, 0x53, 0x71, 0x75, 0x65, 0x65, 0x7a, 0x65, 0x3b, 0x43, 0x4e, 0x4e, 
  0x31, 0x44, 0x5f, 0x54, 0x65, 0x6d, 0x70, 0x65, 0x72, 0x61, 0x74, 0x75, 
  0x72, 0x65, 0x5f, 0x31, 0x2f, 0x63, 0x6f, 0x6e, 0x76, 0x31, 0x64, 0x5f, 
  0x31, 0x5f, 0x31, 0x2f, 0x63, 0x6f, 0x6e, 0x76, 0x6f, 0x6c, 0x75, 0x74, 
  0x69, 0x6f, 0x6e, 0x00, 0x04, 0x00, 0x00, 0x00, 0x01, 0x00, 0x00, 0x00, 
  0x01, 0x00, 0x00, 0x00, 0x08, 0x00, 0x00, 0x00, 0x18, 0x00, 0x00, 0x00, 
  0x9a, 0xfb, 0xff, 0xff, 0x00, 0x00, 0x00, 0x01, 0x14, 0x00, 0x00, 0x00, 
  0x24, 0x00, 0x00, 0x00, 0x24, 0x00, 0x00, 0x00, 0x0e, 0x00, 0x00, 0x00, 
  0x58, 0x00, 0x00, 0x00, 0x04, 0x00, 0x00, 0x00, 0xff, 0xff, 0xff, 0xff, 
  0x01, 0x00, 0x00, 0x00, 0x0a, 0x00, 0x00, 0x00, 0x04, 0x00, 0x00, 0x00, 
  0x88, 0xfb, 0xff, 0xff, 0x35, 0x00, 0x00, 0x00, 0x43, 0x4e, 0x4e, 0x31, 
  0x44, 0x5f, 0x54, 0x65, 0x6d, 0x70, 0x65, 0x72, 0x61, 0x74, 0x75, 0x72, 
  0x65, 0x5f, 0x31, 0x2f, 0x63, 0x6f, 0x6e, 0x76, 0x31, 0x64, 0x5f, 0x31, 
  0x5f, 0x31, 0x2f, 0x63, 0x6f, 0x6e, 0x76, 0x6f, 0x6c, 0x75, 0x74, 0x69, 
  0x6f, 0x6e, 0x2f, 0x45, 0x78, 0x70, 0x61, 0x6e, 0x64, 0x44, 0x69, 0x6d, 
  0x73, 0x00, 0x00, 0x00, 0x04, 0x00, 0x00, 0x00, 0x01, 0x00, 0x00, 0x00, 
  0x01, 0x00, 0x00, 0x00, 0x0a, 0x00, 0x00, 0x00, 0x04, 0x00, 0x00, 0x00, 
  0x6e, 0xfc, 0xff, 0xff, 0x00, 0x00, 0x00, 0x01, 0x20, 0x00, 0x00, 0x00, 
  0xf0, 0x00, 0x00, 0x00, 0x0d, 0x00, 0x00, 0x00, 0x00, 0x00, 0x00, 0x09, 
  0xfc, 0x00, 0x00, 0x00, 0x0c, 0x00, 0x0c, 0x00, 0x00, 0x00, 0x00, 0x00, 
  0x08, 0x00, 0x04, 0x00, 0x0c, 0x00, 0x00, 0x00, 0x08, 0x00, 0x00, 0x00, 
  0x88, 0x00, 0x00, 0x00, 0x10, 0x00, 0x00, 0x00, 0x00, 0x00, 0x00, 0x00, 
  0x00, 0x00, 0x00, 0x00, 0x00, 0x00, 0x00, 0x00, 0x00, 0x00, 0x00, 0x00, 
  0x00, 0x00, 0x00, 0x00, 0x00, 0x00, 0x00, 0x00, 0x00, 0x00, 0x00, 0x00, 
  0x00, 0x00, 0x00, 0x00, 0x00, 0x00, 0x00, 0x00, 0x00, 0x00, 0x00, 0x00, 
  0x00, 0x00, 0x00, 0x00, 0x00, 0x00, 0x00, 0x00, 0x00, 0x00, 0x00, 0x00, 
  0x00, 0x00, 0x00, 0x00, 0x00, 0x00, 0x00, 0x00, 0x00, 0x00, 0x00, 0x00, 
  0x00, 0x00, 0x00, 0x00, 0x00, 0x00, 0x00, 0x00, 0x00, 0x00, 0x00, 0x00, 
  0x00, 0x00, 0x00, 0x00, 0x00, 0x00, 0x00, 0x00, 0x00, 0x00, 0x00, 0x00, 
  0x00, 0x00, 0x00, 0x00, 0x00, 0x00, 0x00, 0x00, 0x00, 0x00, 0x00, 0x00, 
  0x00, 0x00, 0x00, 0x00, 0x00, 0x00, 0x00, 0x00, 0x00, 0x00, 0x00, 0x00, 
  0x00, 0x00, 0x00, 0x00, 0x00, 0x00, 0x00, 0x00, 0x00, 0x00, 0x00, 0x00, 
  0x00, 0x00, 0x00, 0x00, 0x10, 0x00, 0x00, 0x00, 0x71, 0xa1, 0x34, 0x3b, 
  0xb2, 0x02, 0x1e, 0x3b, 0x38, 0xaf, 0x08, 0x3b, 0x80, 0xf2, 0x64, 0x3b, 
  0xf2, 0x60, 0x0f, 0x3b, 0x27, 0xc4, 0x19, 0x3b, 0x28, 0xb4, 0x16, 0x3b, 
  0x00, 0x84, 0x18, 0x3b, 0x6d, 0x1a, 0x19, 0x3b, 0x1a, 0x63, 0x3c, 0x3b, 
  0xdf, 0x18, 0x07, 0x3b, 0xbf, 0x5f, 0x12, 0x3b, 0x90, 0x46, 0x0d, 0x3b, 
  0x81, 0x4a, 0x36, 0x3b, 0x8c, 0xcb, 0x0f, 0x3b, 0x6c, 0x9c, 0x21, 0x3b, 
  0x11, 0x00, 0x00, 0x00, 0x74, 0x66, 0x6c, 0x2e, 0x70, 0x73, 0x65, 0x75, 
  0x64, 0x6f, 0x5f, 0x71, 0x63, 0x6f, 0x6e, 0x73, 0x74, 0x00, 0x00, 0x00, 
  0x04, 0x00, 0x00, 0x00, 0x10, 0x00, 0x00, 0x00, 0x01, 0x00, 0x00, 0x00, 
  0x03, 0x00, 0x00, 0x00, 0x18, 0x00, 0x00, 0x00, 0x96, 0xfd, 0xff, 0xff, 
  0x00, 0x00, 0x00, 0x01, 0x14, 0x00, 0x00, 0x00, 0x14, 0x00, 0x00, 0x00, 
  0x0c, 0x00, 0x00, 0x00, 0x00, 0x00, 0x00, 0x02, 0x20, 0x00, 0x00, 0x00, 
  0x20, 0xfd, 0xff, 0xff, 0x10, 0x00, 0x00, 0x00, 0x61, 0x72, 0x69, 0x74, 
  0x68, 0x2e, 0x63, 0x6f, 0x6e, 0x73, 0x74, 0x61, 0x6e, 0x74, 0x31, 0x30, 
  0x00, 0x00, 0x00, 0x00, 0x01, 0x00, 0x00, 0x00, 0x03, 0x00, 0x00, 0x00, 
  0xd6, 0xfd, 0xff, 0xff, 0x00, 0x00, 0x00, 0x01, 0x14, 0x00, 0x00, 0x00, 
  0x14, 0x00, 0x00, 0x00, 0x0b, 0x00, 0x00, 0x00, 0x00, 0x00, 0x00, 0x02, 
  0x1c, 0x00, 0x00, 0x00, 0x60, 0xfd, 0xff, 0xff, 0x0f, 0x00, 0x00, 0x00, 
  0x61, 0x72, 0x69, 0x74, 0x68, 0x2e, 0x63, 0x6f, 0x6e, 0x73, 0x74, 0x61, 
  0x6e, 0x74, 0x39, 0x00, 0x01, 0x00, 0x00, 0x00, 0x03, 0x00, 0x00, 0x00, 
  0x9e, 0xfe, 0xff, 0xff, 0x00, 0x00, 0x00, 0x01, 0x10, 0x00, 0x00, 0x00, 
  0x10, 0x00, 0x00, 0x00, 0x0a, 0x00, 0x00, 0x00, 0x1c, 0x00, 0x00, 0x00, 
  0x98, 0xfd, 0xff, 0xff, 0x0f, 0x00, 0x00, 0x00, 0x61, 0x72, 0x69, 0x74, 
  0x68, 0x2e, 0x63, 0x6f, 0x6e, 0x73, 0x74, 0x61, 0x6e, 0x74, 0x38, 0x00, 
  0x01, 0x00, 0x00, 0x00, 0x03, 0x00, 0x00, 0x00, 0xd6, 0xfe, 0xff, 0xff, 
  0x00, 0x00, 0x00, 0x01, 0x10, 0x00, 0x00, 0x00, 0x10, 0x00, 0x00, 0x00, 
  0x09, 0x00, 0x00, 0x00, 0x1c, 0x00, 0x00, 0x00, 0xd0, 0xfd, 0xff, 0xff, 
  0x0f, 0x00, 0x00, 0x00, 0x61, 0x72, 0x69, 0x74, 0x68, 0x2e, 0x63, 0x6f, 
  0x6e, 0x73, 0x74, 0x61, 0x6e, 0x74, 0x37, 0x00, 0x01, 0x00, 0x00, 0x00, 
  0x18, 0x00, 0x00, 0x00, 0x0e, 0xff, 0xff, 0xff, 0x00, 0x00, 0x00, 0x01, 
  0x10, 0x00, 0x00, 0x00, 0x10, 0x00, 0x00, 0x00, 0x08, 0x00, 0x00, 0x00, 
  0x1c, 0x00, 0x00, 0x00, 0x08, 0xfe, 0xff, 0xff, 0x0f, 0x00, 0x00, 0x00, 
  0x61, 0x72, 0x69, 0x74, 0x68, 0x2e, 0x63, 0x6f, 0x6e, 0x73, 0x74, 0x61, 
  0x6e, 0x74, 0x36, 0x00, 0x01, 0x00, 0x00, 0x00, 0x10, 0x00, 0x00, 0x00, 
  0x46, 0xff, 0xff, 0xff, 0x00, 0x00, 0x00, 0x01, 0x10, 0x00, 0x00, 0x00, 
  0x10, 0x00, 0x00, 0x00, 0x07, 0x00, 0x00, 0x00, 0x1c, 0x00, 0x00, 0x00, 
  0x40, 0xfe, 0xff, 0xff, 0x0f, 0x00, 0x00, 0x00, 0x61, 0x72, 0x69, 0x74, 
  0x68, 0x2e, 0x63, 0x6f, 0x6e, 0x73, 0x74, 0x61, 0x6e, 0x74, 0x35, 0x00, 
  0x01, 0x00, 0x00, 0x00, 0x18, 0x00, 0x00, 0x00, 0x7e, 0xff, 0xff, 0xff, 
  0x00, 0x00, 0x00, 0x01, 0x10, 0x00, 0x00, 0x00, 0x10, 0x00, 0x00, 0x00, 
  0x06, 0x00, 0x00, 0x00, 0x1c, 0x00, 0x00, 0x00, 0x78, 0xfe, 0xff, 0xff, 
  0x0f, 0x00, 0x00, 0x00, 0x61, 0x72, 0x69, 0x74, 0x68, 0x2e, 0x63, 0x6f, 
  0x6e, 0x73, 0x74, 0x61, 0x6e, 0x74, 0x34, 0x00, 0x04, 0x00, 0x00, 0x00, 
  0x18, 0x00, 0x00, 0x00, 0x01, 0x00, 0x00, 0x00, 0x03, 0x00, 0x00, 0x00, 
  0x04, 0x00, 0x00, 0x00, 0xc2, 0xff, 0xff, 0xff, 0x00, 0x00, 0x00, 0x01, 
  0x10, 0x00, 0x00, 0x00, 0x10, 0x00, 0x00, 0x00, 0x05, 0x00, 0x00, 0x00, 
  0x1c, 0x00, 0x00, 0x00, 0xbc, 0xfe, 0xff, 0xff, 0x0f, 0x00, 0x00, 0x00, 
  0x61, 0x72, 0x69, 0x74, 0x68, 0x2e, 0x63, 0x6f, 0x6e, 0x73, 0x74, 0x61, 
  0x6e, 0x74, 0x33, 0x00, 0x02, 0x00, 0x00, 0x00, 0x03, 0x00, 0x00, 0x00, 
  0x18, 0x00, 0x00, 0x00, 0x00, 0x00, 0x16, 0x00, 0x18, 0x00, 0x14, 0x00, 
  0x00, 0x00, 0x10, 0x00, 0x0c, 0x00, 0x08, 0x00, 0x00, 0x00, 0x00, 0x00, 
  0x00, 0x00, 0x07, 0x00, 0x16, 0x00, 0x00, 0x00, 0x00, 0x00, 0x00, 0x01, 
  0x10, 0x00, 0x00, 0x00, 0x10, 0x00, 0x00, 0x00, 0x04, 0x00, 0x00, 0x00, 
  0x1c, 0x00, 0x00, 0x00, 0x10, 0xff, 0xff, 0xff, 0x0f, 0x00, 0x00, 0x00, 
  0x61, 0x72, 0x69, 0x74, 0x68, 0x2e, 0x63, 0x6f, 0x6e, 0x73, 0x74, 0x61, 
  0x6e, 0x74, 0x32, 0x00, 0x02, 0x00, 0x00, 0x00, 0x18, 0x00, 0x00, 0x00, 
  0x10, 0x00, 0x00, 0x00, 0xc6, 0xff, 0xff, 0xff, 0x00, 0x00, 0x00, 0x01, 
  0x14, 0x00, 0x00, 0x00, 0x14, 0x00, 0x00, 0x00, 0x03, 0x00, 0x00, 0x00, 
  0x00, 0x00, 0x00, 0x02, 0x1c, 0x00, 0x00, 0x00, 0x50, 0xff, 0xff, 0xff, 
  0x0f, 0x00, 0x00, 0x00, 0x61, 0x72, 0x69, 0x74, 0x68, 0x2e, 0x63, 0x6f, 
  0x6e, 0x73, 0x74, 0x61, 0x6e, 0x74, 0x31, 0x00, 0x00, 0x00, 0x00, 0x00, 
  0x00, 0x00, 0x16, 0x00, 0x1c, 0x00, 0x18, 0x00, 0x17, 0x00, 0x10, 0x00, 
  0x0c, 0x00, 0x08, 0x00, 0x00, 0x00, 0x00, 0x00, 0x00, 0x00, 0x07, 0x00, 
  0x16, 0x00, 0x00, 0x00, 0x00, 0x00, 0x00, 0x01, 0x14, 0x00, 0x00, 0x00, 
  0x14, 0x00, 0x00, 0x00, 0x02, 0x00, 0x00, 0x00, 0x00, 0x00, 0x00, 0x02, 
  0x1c, 0x00, 0x00, 0x00, 0xa0, 0xff, 0xff, 0xff, 0x0e, 0x00, 0x00, 0x00, 
  0x61, 0x72, 0x69, 0x74, 0x68, 0x2e, 0x63, 0x6f, 0x6e, 0x73, 0x74, 0x61, 
  0x6e, 0x74, 0x00, 0x00, 0x00, 0x00, 0x00, 0x00, 0x00, 0x00, 0x16, 0x00, 
  0x1c, 0x00, 0x18, 0x00, 0x00, 0x00, 0x14, 0x00, 0x10, 0x00, 0x0c, 0x00, 
  0x00, 0x00, 0x00, 0x00, 0x08, 0x00, 0x07, 0x00, 0x16, 0x00, 0x00, 0x00, 
  0x00, 0x00, 0x00, 0x01, 0x14, 0x00, 0x00, 0x00, 0x24, 0x00, 0x00, 0x00, 
  0x24, 0x00, 0x00, 0x00, 0x01, 0x00, 0x00, 0x00, 0x40, 0x00, 0x00, 0x00, 
  0x03, 0x00, 0x00, 0x00, 0xff, 0xff, 0xff, 0xff, 0x0a, 0x00, 0x00, 0x00, 
  0x04, 0x00, 0x00, 0x00, 0x04, 0x00, 0x04, 0x00, 0x04, 0x00, 0x00, 0x00, 
  0x1e, 0x00, 0x00, 0x00, 0x73, 0x65, 0x72, 0x76, 0x69, 0x6e, 0x67, 0x5f, 
  0x64, 0x65, 0x66, 0x61, 0x75, 0x6c, 0x74, 0x5f, 0x6b, 0x65, 0x72, 0x61, 
  0x73, 0x5f, 0x74, 0x65, 0x6e, 0x73, 0x6f, 0x72, 0x3a, 0x30, 0x00, 0x00, 
  0x03, 0x00, 0x00, 0x00, 0x01, 0x00, 0x00, 0x00, 0x0a, 0x00, 0x00, 0x00, 
  0x04, 0x00, 0x00, 0x00, 0x05, 0x00, 0x00, 0x00, 0x60, 0x00, 0x00, 0x00, 
  0x40, 0x00, 0x00, 0x00, 0x24, 0x00, 0x00, 0x00, 0x14, 0x00, 0x00, 0x00, 
  0x04, 0x00, 0x00, 0x00, 0xc0, 0xff, 0xff, 0xff, 0x09, 0x00, 0x00, 0x00, 
  0x00, 0x00, 0x00, 0x09, 0xcc, 0xff, 0xff, 0xff, 0x28, 0x00, 0x00, 0x00, 
  0x00, 0x00, 0x00, 0x28, 0xd8, 0xff, 0xff, 0xff, 0x16, 0x00, 0x00, 0x00, 
  0x00, 0x00, 0x00, 0x16, 0x0c, 0x00, 0x10, 0x00, 0x0f, 0x00, 0x00, 0x00, 
  0x08, 0x00, 0x04, 0x00, 0x0c, 0x00, 0x00, 0x00, 0x03, 0x00, 0x00, 0x00, 
  0x05, 0x00, 0x00, 0x00, 0x00, 0x00, 0x00, 0x03, 0x0c, 0x00, 0x0c, 0x00, 
  0x0b, 0x00, 0x00, 0x00, 0x00, 0x00, 0x04, 0x00, 0x0c, 0x00, 0x00, 0x00, 
  0x46, 0x00, 0x00, 0x00, 0x00, 0x00, 0x00, 0x46, 
};
const unsigned int temperature_model_len = 8792;

// Model information
#define WINDOW_SIZE 10
#define NUM_FEATURES 4
#define NUM_HORIZONS 3

// Feature names
const char* feature_names[] = {
    "Temp_AHT20_C",
    "Umid_AHT20_pct",
    "Temp_BMP280_C",
    "Press_BMP280_hPa"
};

// Horizon names
const char* horizon_names[] = {
    "5 minutes",
    "10 minutes",
    "15 minutes"
};

#endif // TEMPERATURE_MODEL_H
