// Temperature Prediction Model - TinyML
// Auto-generated file - Do not edit manually
// Model trained on AHT20 + BMP280 sensor data

#ifndef TEMPERATURE_MODEL_H
#define TEMPERATURE_MODEL_H

const unsigned char temperature_model[] = {
  0x1c, 0x00, 0x00, 0x00, 0x54, 0x46, 0x4c, 0x33, 0x14, 0x00, 0x20, 0x00, 
  0x1c, 0x00, 0x18, 0x00, 0x14, 0x00, 0x10, 0x00, 0x0c, 0x00, 0x00, 0x00, 
  0x08, 0x00, 0x04, 0x00, 0x14, 0x00, 0x00, 0x00, 0x1c, 0x00, 0x00, 0x00, 
  0x8c, 0x00, 0x00, 0x00, 0xe4, 0x00, 0x00, 0x00, 0xe0, 0x13, 0x00, 0x00, 
  0xf0, 0x13, 0x00, 0x00, 0xb4, 0x21, 0x00, 0x00, 0x03, 0x00, 0x00, 0x00, 
  0x01, 0x00, 0x00, 0x00, 0x04, 0x00, 0x00, 0x00, 0x76, 0xea, 0xff, 0xff, 
  0x0c, 0x00, 0x00, 0x00, 0x1c, 0x00, 0x00, 0x00, 0x3c, 0x00, 0x00, 0x00, 
  0x0f, 0x00, 0x00, 0x00, 0x73, 0x65, 0x72, 0x76, 0x69, 0x6e, 0x67, 0x5f, 
  0x64, 0x65, 0x66, 0x61, 0x75, 0x6c, 0x74, 0x00, 0x01, 0x00, 0x00, 0x00, 
  0x04, 0x00, 0x00, 0x00, 0x90, 0xff, 0xff, 0xff, 0x15, 0x00, 0x00, 0x00, 
  0x04, 0x00, 0x00, 0x00, 0x08, 0x00, 0x00, 0x00, 0x6f, 0x75, 0x74, 0x70, 
  0x75, 0x74, 0x5f, 0x30, 0x00, 0x00, 0x00, 0x00, 0x01, 0x00, 0x00, 0x00, 
  0x04, 0x00, 0x00, 0x00, 0xa6, 0xec, 0xff, 0xff, 0x04, 0x00, 0x00, 0x00, 
  0x0c, 0x00, 0x00, 0x00, 0x6b, 0x65, 0x72, 0x61, 0x73, 0x5f, 0x74, 0x65, 
  0x6e, 0x73, 0x6f, 0x72, 0x00, 0x00, 0x00, 0x00, 0x02, 0x00, 0x00, 0x00, 
  0x34, 0x00, 0x00, 0x00, 0x04, 0x00, 0x00, 0x00, 0xdc, 0xff, 0xff, 0xff, 
  0x18, 0x00, 0x00, 0x00, 0x04, 0x00, 0x00, 0x00, 0x13, 0x00, 0x00, 0x00, 
  0x43, 0x4f, 0x4e, 0x56, 0x45, 0x52, 0x53, 0x49, 0x4f, 0x4e, 0x5f, 0x4d, 
  0x45, 0x54, 0x41, 0x44, 0x41, 0x54, 0x41, 0x00, 0x08, 0x00, 0x0c, 0x00, 
  0x08, 0x00, 0x04, 0x00, 0x08, 0x00, 0x00, 0x00, 0x17, 0x00, 0x00, 0x00, 
  0x04, 0x00, 0x00, 0x00, 0x13, 0x00, 0x00, 0x00, 0x6d, 0x69, 0x6e, 0x5f, 
  0x72, 0x75, 0x6e, 0x74, 0x69, 0x6d, 0x65, 0x5f, 0x76, 0x65, 0x72, 0x73, 
  0x69, 0x6f, 0x6e, 0x00, 0x19, 0x00, 0x00, 0x00, 0xf8, 0x12, 0x00, 0x00, 
  0xf0, 0x12, 0x00, 0x00, 0xdc, 0x12, 0x00, 0x00, 0xc0, 0x12, 0x00, 0x00, 
  0xb0, 0x0c, 0x00, 0x00, 0x80, 0x0b, 0x00, 0x00, 0xf0, 0x06, 0x00, 0x00, 
  0x80, 0x06, 0x00, 0x00, 0x30, 0x06, 0x00, 0x00, 0xc0, 0x05, 0x00, 0x00, 
  0xa4, 0x05, 0x00, 0x00, 0x88, 0x05, 0x00, 0x00, 0x6c, 0x05, 0x00, 0x00, 
  0xdc, 0x00, 0x00, 0x00, 0xd4, 0x00, 0x00, 0x00, 0xcc, 0x00, 0x00, 0x00, 
  0xc4, 0x00, 0x00, 0x00, 0xbc, 0x00, 0x00, 0x00, 0xb4, 0x00, 0x00, 0x00, 
  0xac, 0x00, 0x00, 0x00, 0xa4, 0x00, 0x00, 0x00, 0x9c, 0x00, 0x00, 0x00, 
  0x94, 0x00, 0x00, 0x00, 0x74, 0x00, 0x00, 0x00, 0x04, 0x00, 0x00, 0x00, 
  0x86, 0xed, 0xff, 0xff, 0x04, 0x00, 0x00, 0x00, 0x60, 0x00, 0x00, 0x00, 
  0x0c, 0x00, 0x00, 0x00, 0x08, 0x00, 0x0e, 0x00, 0x08, 0x00, 0x04, 0x00, 
  0x08, 0x00, 0x00, 0x00, 0x10, 0x00, 0x00, 0x00, 0x28, 0x00, 0x00, 0x00, 
  0x00, 0x00, 0x06, 0x00, 0x08, 0x00, 0x04, 0x00, 0x06, 0x00, 0x00, 0x00, 
  0x04, 0x00, 0x00, 0x00, 0x01, 0x00, 0x00, 0x00, 0xea, 0x03, 0x00, 0x00, 
  0x0c, 0x00, 0x18, 0x00, 0x14, 0x00, 0x10, 0x00, 0x0c, 0x00, 0x04, 0x00, 
  0x0c, 0x00, 0x00, 0x00, 0xb6, 0xf2, 0x28, 0x9e, 0x7d, 0x70, 0x4f, 0x14, 
  0x02, 0x00, 0x00, 0x00, 0x02, 0x00, 0x00, 0x00, 0x04, 0x00, 0x00, 0x00, 
  0x06, 0x00, 0x00, 0x00, 0x32, 0x2e, 0x32, 0x30, 0x2e, 0x30, 0x00, 0x00, 
  0xf2, 0xed, 0xff, 0xff, 0x04, 0x00, 0x00, 0x00, 0x10, 0x00, 0x00, 0x00, 
  0x32, 0x2e, 0x34, 0x2e, 0x30, 0x00, 0x00, 0x00, 0x00, 0x00, 0x00, 0x00, 
  0x00, 0x00, 0x00, 0x00, 0x50, 0xe0, 0xff, 0xff, 0x54, 0xe0, 0xff, 0xff, 
  0x58, 0xe0, 0xff, 0xff, 0x5c, 0xe0, 0xff, 0xff, 0x60, 0xe0, 0xff, 0xff, 
  0x64, 0xe0, 0xff, 0xff, 0x68, 0xe0, 0xff, 0xff, 0x6c, 0xe0, 0xff, 0xff, 
  0x70, 0xe0, 0xff, 0xff, 0x32, 0xee, 0xff, 0xff, 0x04, 0x00, 0x00, 0x00, 
  0x80, 0x04, 0x00, 0x00, 0x4c, 0x0e, 0xeb, 0xf9, 0xed, 0x33, 0x58, 0x43, 
  0x62, 0x1b, 0x12, 0xee, 0x13, 0x19, 0xcd, 0x2d, 0x37, 0xf2, 0x38, 0x58, 
  0xda, 0xfd, 0x04, 0xda, 0x2f, 0x54, 0x25, 0x49, 0xf7, 0x17, 0x19, 0x50, 
  0x13, 0x7c, 0x0c, 0x17, 0x15, 0xc8, 0x1c, 0x1b, 0x00, 0x60, 0x09, 0x7f, 
  0x1d, 0x2f, 0x2a, 0x12, 0xf3, 0xde, 0x40, 0x45, 0x95, 0xf0, 0x0a, 0x41, 
  0xd9, 0xfe, 0xe3, 0xc7, 0xe3, 0x2b, 0xf8, 0x52, 0x48, 0x27, 0x52, 0x46, 
  0xd9, 0x32, 0x09, 0xe2, 0x50, 0xb7, 0x38, 0x24, 0x31, 0xe3, 0x29, 0xf6, 
  0xf4, 0x00, 0x1f, 0x00, 0xe5, 0xc9, 0xb1, 0xca, 0x00, 0xe7, 0xb2, 0x50, 
  0xe4, 0x05, 0xce, 0x0d, 0x41, 0xb4, 0x20, 0x19, 0x15, 0x09, 0xdb, 0x0e, 
  0xfb, 0x0b, 0xfb, 0x02, 0xde, 0xdb, 0xc3, 0xc3, 0xda, 0x0e, 0x0f, 0x62, 
  0x30, 0xe3, 0xf7, 0x0e, 0x03, 0x81, 0x4c, 0x07, 0x3a, 0xe1, 0x04, 0xf6, 
  0xd3, 0x09, 0xf5, 0xf6, 0x16, 0xe1, 0xe4, 0x12, 0xde, 0xdc, 0x0d, 0x53, 
  0xf7, 0xd7, 0xe9, 0xe1, 0x3a, 0x4d, 0x61, 0x16, 0x22, 0x13, 0x69, 0x21, 
  0x1c, 0xeb, 0x03, 0xca, 0x0c, 0x0e, 0xe1, 0x0b, 0x48, 0xd7, 0x66, 0x27, 
  0x54, 0x0c, 0x4e, 0x50, 0xdb, 0xed, 0x6f, 0x06, 0xf0, 0xea, 0x58, 0xeb, 
  0x6d, 0x57, 0x3b, 0x3d, 0x06, 0x2e, 0xff, 0x07, 0xca, 0x35, 0x57, 0x7f, 
  0x6b, 0x5c, 0x5b, 0xd9, 0x36, 0x6b, 0xe8, 0xd1, 0x48, 0x3e, 0x4c, 0x1b, 
  0x58, 0x2b, 0x5a, 0xf2, 0x0c, 0x6f, 0x04, 0xe4, 0x19, 0x5a, 0x4c, 0x26, 
  0x49, 0xe5, 0xf4, 0x25, 0xe6, 0x43, 0x0f, 0xda, 0x0f, 0xba, 0x1e, 0xad, 
  0xf8, 0xcc, 0x2b, 0xf3, 0x1a, 0xa6, 0x17, 0xe4, 0x43, 0xe8, 0xf1, 0xdf, 
  0x62, 0x81, 0xb1, 0x0b, 0xa8, 0x8d, 0x30, 0x16, 0xd2, 0x1f, 0x52, 0x16, 
  0x3a, 0xea, 0xdd, 0x1b, 0xec, 0xdf, 0x31, 0x3c, 0x9a, 0x1a, 0x02, 0x08, 
  0xe0, 0xd6, 0xaa, 0xe1, 0x53, 0xe5, 0xef, 0xee, 0x1d, 0x36, 0xc3, 0x0a, 
  0x0a, 0x48, 0x1b, 0x2c, 0x09, 0x3a, 0xa4, 0x16, 0x16, 0xb8, 0xeb, 0x84, 
  0x30, 0x3f, 0x2b, 0x21, 0xfd, 0x39, 0x18, 0x5c, 0x15, 0xf3, 0xf1, 0x60, 
  0xee, 0x57, 0x25, 0xf5, 0xf5, 0x1a, 0x08, 0xdb, 0x50, 0x33, 0xeb, 0x15, 
  0x20, 0x11, 0x1b, 0x07, 0x27, 0x3d, 0xf5, 0x14, 0x03, 0xe7, 0xd9, 0xec, 
  0x17, 0xf5, 0x37, 0xfe, 0xff, 0xf6, 0x2d, 0x0e, 0xfb, 0x67, 0x17, 0x06, 
  0x18, 0xe5, 0xd9, 0xd7, 0xee, 0x38, 0x20, 0xfa, 0xe4, 0x13, 0x25, 0x03, 
  0x32, 0x49, 0x42, 0xcc, 0x4f, 0x4d, 0x5b, 0xd1, 0x16, 0xfe, 0xeb, 0x7f, 
  0x25, 0x4b, 0xf9, 0xed, 0x71, 0x76, 0xf8, 0x1b, 0xfc, 0x48, 0xd9, 0x5a, 
  0x47, 0x33, 0x0c, 0x60, 0x4a, 0xd5, 0x05, 0x2e, 0xd5, 0x34, 0x21, 0x0a, 
  0x6c, 0x2b, 0x46, 0x10, 0x20, 0x3d, 0x41, 0x59, 0x35, 0x4d, 0x3e, 0x58, 
  0xf5, 0x7f, 0x09, 0xf7, 0x32, 0x43, 0xc3, 0xe3, 0x63, 0xed, 0xe8, 0xf4, 
  0x2f, 0x3b, 0xc7, 0x4a, 0x38, 0x51, 0x6b, 0xec, 0x60, 0xd8, 0xf4, 0x31, 
  0x67, 0x53, 0x5d, 0x56, 0x17, 0x47, 0xcb, 0x3e, 0x4c, 0x74, 0xcf, 0x48, 
  0x25, 0x4a, 0x6c, 0xd6, 0x34, 0xed, 0xf8, 0x6b, 0xbd, 0x23, 0xc0, 0xf3, 
  0x07, 0x01, 0x31, 0xb6, 0xe4, 0xf2, 0x5e, 0x25, 0x0a, 0xff, 0x09, 0x7f, 
  0xc8, 0x46, 0x1c, 0xd5, 0x27, 0x1e, 0x1a, 0x5f, 0x2a, 0x38, 0x20, 0x16, 
  0x23, 0x71, 0xb6, 0x37, 0xef, 0x1b, 0x3d, 0x0d, 0x4a, 0x60, 0xed, 0x08, 
  0x0c, 0x02, 0x3e, 0x26, 0x38, 0xda, 0x34, 0xe3, 0x2f, 0x43, 0xce, 0xf2, 
  0x38, 0x28, 0xe0, 0x1e, 0x24, 0xcf, 0xd4, 0xd5, 0xe0, 0x59, 0xee, 0x02, 
  0x3a, 0x66, 0x37, 0x1a, 0xd0, 0x3c, 0x2a, 0x11, 0xfb, 0xf4, 0x28, 0x1b, 
  0xc9, 0x41, 0x20, 0x24, 0xc2, 0x2c, 0x81, 0x16, 0x27, 0x24, 0x18, 0xb7, 
  0xd8, 0xda, 0x0e, 0x00, 0xea, 0x27, 0xeb, 0x36, 0xb7, 0x3b, 0xf4, 0x20, 
  0xb5, 0xf5, 0xb4, 0x46, 0xff, 0x3a, 0xed, 0xa6, 0xa8, 0x23, 0xa3, 0x3f, 
  0xe9, 0xb3, 0x1a, 0xd5, 0xda, 0x1d, 0xd2, 0x29, 0x81, 0xe0, 0xf2, 0xd7, 
  0x29, 0x15, 0xe2, 0xec, 0xd9, 0x89, 0x22, 0xae, 0x30, 0x83, 0x24, 0x3b, 
  0x8a, 0xdc, 0xf0, 0x2e, 0xaf, 0xda, 0x0b, 0x10, 0xf0, 0x5c, 0xe6, 0x81, 
  0x0e, 0xdd, 0xf0, 0xfb, 0xf7, 0xaa, 0xde, 0xda, 0xf3, 0x58, 0xfa, 0xfb, 
  0xa0, 0xe1, 0xd6, 0x12, 0x41, 0x20, 0xcc, 0x32, 0x30, 0x82, 0xf2, 0x47, 
  0xe1, 0x02, 0xf5, 0xfa, 0xf5, 0x28, 0xa4, 0xe2, 0xfc, 0xd3, 0xfd, 0xc1, 
  0x9d, 0xab, 0x58, 0xf7, 0xf3, 0xe0, 0xa6, 0x14, 0xc6, 0xf7, 0xfb, 0x57, 
  0x93, 0xeb, 0xf3, 0xf7, 0xf8, 0xf7, 0xea, 0xc5, 0xf6, 0x46, 0xf8, 0x16, 
  0xb2, 0x2e, 0x5b, 0xef, 0xb0, 0x32, 0x82, 0xae, 0x4f, 0xf6, 0x2c, 0xcd, 
  0xf5, 0xe4, 0x25, 0x37, 0xe4, 0xe3, 0xbb, 0x0c, 0x18, 0x09, 0xa5, 0xad, 
  0x8a, 0xf6, 0x49, 0x30, 0x30, 0xcb, 0x31, 0xc8, 0x4a, 0xce, 0xc3, 0x07, 
  0xd5, 0xda, 0x25, 0xdd, 0xd0, 0xe1, 0x0f, 0xed, 0x2b, 0xa1, 0x2d, 0xb8, 
  0x81, 0xa9, 0x4b, 0xda, 0x10, 0xbb, 0xb0, 0x39, 0xe2, 0xb9, 0x58, 0xe8, 
  0xe9, 0x3d, 0xcd, 0xa6, 0x93, 0x41, 0xab, 0xfa, 0x1d, 0xa6, 0xe5, 0xda, 
  0x54, 0x26, 0x05, 0xab, 0x1e, 0x1c, 0x13, 0xe0, 0xf4, 0x6e, 0x2c, 0xf3, 
  0x3d, 0x31, 0xda, 0xf3, 0x1e, 0x25, 0x56, 0xdd, 0x0a, 0x04, 0x0e, 0x7f, 
  0x09, 0xf7, 0x30, 0x60, 0x4d, 0xe8, 0xfa, 0x67, 0x5c, 0x57, 0x3f, 0x48, 
  0xc5, 0xf9, 0x18, 0x57, 0x61, 0xef, 0x18, 0x41, 0xef, 0x64, 0x65, 0x04, 
  0x43, 0xf5, 0x5e, 0x2f, 0x46, 0x04, 0x55, 0x6a, 0x22, 0x56, 0xef, 0x5d, 
  0xfc, 0x11, 0x46, 0x5c, 0x41, 0x0b, 0x69, 0x1d, 0x19, 0x23, 0x4c, 0x47, 
  0xd0, 0xe2, 0x0c, 0x60, 0x56, 0xdd, 0x29, 0x2c, 0xd5, 0xe4, 0x42, 0x2b, 
  0xef, 0x07, 0xd7, 0x1a, 0x55, 0xed, 0x32, 0x2d, 0x38, 0x41, 0x17, 0x4a, 
  0x59, 0x50, 0x67, 0xcd, 0x14, 0x3b, 0x3b, 0x11, 0x2b, 0xf0, 0x2f, 0xd5, 
  0x4c, 0x36, 0xc7, 0x40, 0xfe, 0x5c, 0x54, 0x08, 0x4a, 0xe3, 0xe1, 0x7c, 
  0xd3, 0x1f, 0x01, 0xe8, 0xf6, 0x38, 0x11, 0x48, 0x33, 0xe6, 0x15, 0xf6, 
  0x31, 0x73, 0xd7, 0xe8, 0xf0, 0xd3, 0xed, 0x56, 0x43, 0xd9, 0x4c, 0x7f, 
  0xd5, 0x30, 0x22, 0x24, 0x0e, 0x0e, 0xe7, 0x0f, 0x21, 0x25, 0x46, 0x12, 
  0x51, 0x6e, 0x03, 0xab, 0x97, 0x48, 0x0f, 0xb9, 0x55, 0x44, 0xf6, 0x4d, 
  0xf0, 0x56, 0x0c, 0xb5, 0xc4, 0x34, 0xb2, 0x5f, 0x00, 0xe1, 0xe9, 0x1d, 
  0x64, 0x26, 0xfd, 0xf2, 0xba, 0x5c, 0xd0, 0xeb, 0x4d, 0x21, 0xb2, 0xec, 
  0xaf, 0x43, 0x7f, 0xfd, 0x1b, 0x6e, 0xe4, 0x5f, 0xf3, 0x21, 0xfc, 0x56, 
  0x52, 0x6e, 0x9f, 0xdd, 0xaa, 0x29, 0xe0, 0x08, 0x1e, 0x48, 0xb1, 0x38, 
  0x09, 0xfd, 0x47, 0xdc, 0xfd, 0xef, 0xff, 0x38, 0x01, 0xff, 0x3c, 0x19, 
  0x0c, 0x3b, 0x05, 0x17, 0xce, 0xce, 0xe1, 0xf1, 0x2f, 0x26, 0xe5, 0x7f, 
  0x2a, 0x45, 0x13, 0xc5, 0x3e, 0x26, 0x1e, 0x3c, 0xee, 0x09, 0x37, 0x08, 
  0x4b, 0x55, 0xe2, 0x29, 0x0a, 0x0c, 0xdd, 0x09, 0x31, 0x2e, 0xf7, 0x5d, 
  0xfb, 0x4e, 0x1b, 0x31, 0xfd, 0xf4, 0x20, 0x2f, 0xcd, 0xef, 0xfd, 0x0f, 
  0x04, 0x21, 0x11, 0x18, 0xcd, 0x0a, 0xda, 0xd9, 0x43, 0x40, 0xcd, 0x5f, 
  0xc5, 0x1d, 0x02, 0x2c, 0x6f, 0x32, 0x66, 0xff, 0x0d, 0xf8, 0x67, 0x6a, 
  0x52, 0x6e, 0xd6, 0x24, 0x52, 0x08, 0xea, 0x0f, 0x35, 0xdf, 0xd1, 0x53, 
  0x58, 0x7d, 0x25, 0xe3, 0x1e, 0xdf, 0xd9, 0xeb, 0xf5, 0x46, 0x44, 0xd0, 
  0x12, 0xf5, 0x2b, 0x11, 0xe6, 0x11, 0x18, 0x37, 0x65, 0xfb, 0xe5, 0x7f, 
  0x2e, 0xf8, 0xe5, 0x15, 0x5a, 0x47, 0x0e, 0x7c, 0x42, 0x17, 0x51, 0x04, 
  0x08, 0x12, 0x2c, 0x2d, 0xf6, 0x27, 0x61, 0x1a, 0x62, 0x65, 0x11, 0x2d, 
  0x0c, 0x68, 0xfc, 0xe6, 0xce, 0x75, 0x7f, 0x4e, 0x5d, 0x6f, 0x76, 0x65, 
  0xe9, 0x78, 0x31, 0x77, 0x2d, 0xfc, 0x36, 0x77, 0xf8, 0x5f, 0x72, 0x72, 
  0x7d, 0x7f, 0x1a, 0xf1, 0x29, 0x4d, 0x7d, 0x2d, 0x42, 0xd4, 0x08, 0x49, 
  0xc6, 0xf6, 0xeb, 0xdd, 0xea, 0xf7, 0x6f, 0x4c, 0x43, 0xe0, 0xcc, 0x1a, 
  0x22, 0x01, 0xee, 0x41, 0xda, 0xef, 0x67, 0xe5, 0x61, 0x54, 0x29, 0xd3, 
  0x10, 0x21, 0x1d, 0x5d, 0x59, 0x6b, 0x46, 0x1a, 0x71, 0x2d, 0x75, 0x37, 
  0xf8, 0x07, 0x1e, 0x43, 0xbe, 0xf2, 0xff, 0xff, 0x04, 0x00, 0x00, 0x00, 
  0x0c, 0x00, 0x00, 0x00, 0xff, 0xff, 0xff, 0xff, 0x08, 0x00, 0x00, 0x00, 
  0x18, 0x00, 0x00, 0x00, 0xd6, 0xf2, 0xff, 0xff, 0x04, 0x00, 0x00, 0x00, 
  0x0c, 0x00, 0x00, 0x00, 0xff, 0xff, 0xff, 0xff, 0x06, 0x00, 0x00, 0x00, 
  0x10, 0x00, 0x00, 0x00, 0xee, 0xf2, 0xff, 0xff, 0x04, 0x00, 0x00, 0x00, 
  0x0c, 0x00, 0x00, 0x00, 0x8e, 0x20, 0x8c, 0x3f, 0x5c, 0x75, 0x97, 0x3f, 
  0xd7, 0xa0, 0x88, 0x3f, 0x06, 0xf3, 0xff, 0xff, 0x04, 0x00, 0x00, 0x00, 
  0x60, 0x00, 0x00, 0x00, 0x49, 0xa2, 0x00, 0x3f, 0x5c, 0x49, 0x87, 0x3e, 
  0x15, 0x01, 0xdc, 0x3e, 0xc6, 0x3d, 0x9e, 0x3e, 0x29, 0x50, 0xb4, 0x3e, 
  0xaf, 0x5c, 0xa9, 0x3e, 0x0b, 0x24, 0xb7, 0x3e, 0x1b, 0x24, 0xa3, 0x3e, 
  0xc4, 0x38, 0x96, 0x3e, 0x54, 0xf8, 0x79, 0x3e, 0x72, 0x75, 0xbd, 0x3e, 
  0x0f, 0x50, 0x7e, 0x3e, 0xe9, 0x6a, 0x9d, 0x3e, 0x1e, 0x86, 0xaa, 0x3e, 
  0x08, 0xe8, 0xb1, 0x3e, 0x55, 0x44, 0xd2, 0x3e, 0x22, 0x17, 0x9b, 0x3e, 
  0xd9, 0x8c, 0xa1, 0x3e, 0x85, 0x56, 0xad, 0x3e, 0x53, 0x0b, 0xaa, 0x3e, 
  0x36, 0xb2, 0xb4, 0x3e, 0x9c, 0x05, 0xb8, 0x3e, 0xce, 0x2c, 0xaf, 0x3e, 
  0xe5, 0xf7, 0x49, 0x3e, 0x72, 0xf3, 0xff, 0xff, 0x04, 0x00, 0x00, 0x00, 
  0x40, 0x00, 0x00, 0x00, 0x8c, 0x3a, 0x0f, 0x3f, 0xd2, 0x26, 0xbd, 0xbe, 
  0x0e, 0x85, 0xb7, 0x3e, 0x83, 0xe6, 0xb5, 0x3e, 0xbe, 0x5b, 0x0d, 0x3f, 
  0x36, 0x00, 0xbc, 0x3e, 0x86, 0xc0, 0x0f, 0x3f, 0x05, 0x61, 0x3b, 0xbd, 
  0x14, 0x9e, 0xff, 0xbc, 0x07, 0x5b, 0x1f, 0xbd, 0x0c, 0xc4, 0xa4, 0x3e, 
  0x9c, 0x60, 0xec, 0x3e, 0x87, 0x7f, 0x5e, 0x3f, 0xa4, 0xfa, 0xe0, 0xbe, 
  0x44, 0xc1, 0xc9, 0x3e, 0x15, 0xd7, 0xc4, 0x3e, 0xbe, 0xf3, 0xff, 0xff, 
  0x04, 0x00, 0x00, 0x00, 0x60, 0x00, 0x00, 0x00, 0x8d, 0xc7, 0x4d, 0xbc, 
  0x15, 0xe6, 0x80, 0xbc, 0x25, 0xa2, 0x89, 0x3e, 0x3f, 0x44, 0x66, 0xbc, 
  0xeb, 0x26, 0x56, 0x3e, 0x4f, 0xb6, 0x6e, 0x3e, 0xb2, 0xfa, 0xed, 0x3e, 
  0x9f, 0x34, 0xa3, 0xbc, 0xa8, 0xf2, 0x69, 0xbc, 0x5c, 0x03, 0xb1, 0x3e, 
  0x3a, 0x05, 0xed, 0x3e, 0x9f, 0x71, 0x41, 0xbd, 0xd2, 0x60, 0x01, 0xbd, 
  0xdc, 0x70, 0xab, 0xbc, 0x21, 0x09, 0xfd, 0x3e, 0xe5, 0x0f, 0x6c, 0xbd, 
  0xff, 0x25, 0x88, 0x3e, 0x98, 0x81, 0xbf, 0xbc, 0x03, 0xfc, 0x96, 0x3e, 
  0x2c, 0xc5, 0xb5, 0xbc, 0x71, 0x25, 0x6a, 0x3e, 0x16, 0x80, 0x61, 0x3e, 
  0xf4, 0xbc, 0xc1, 0x3e, 0x4b, 0x6b, 0x1e, 0x3c, 0x2a, 0xf4, 0xff, 0xff, 
  0x04, 0x00, 0x00, 0x00, 0x80, 0x04, 0x00, 0x00, 0xa0, 0x44, 0x0a, 0xbe, 
  0x8b, 0x39, 0x50, 0x3e, 0xf0, 0x8f, 0x15, 0xbd, 0x0f, 0x0e, 0x62, 0xbd, 
  0xee, 0x2e, 0x0f, 0xbe, 0x47, 0xb6, 0x5c, 0xbe, 0x9b, 0x43, 0x05, 0xbe, 
  0x05, 0x08, 0x04, 0xbe, 0xc1, 0x39, 0x34, 0x3e, 0xae, 0xb0, 0x53, 0x3e, 
  0xa5, 0x4d, 0x94, 0x3e, 0xe1, 0x17, 0x6d, 0xbd, 0x58, 0x71, 0x3f, 0xbe, 
  0x28, 0x4f, 0x1c, 0x3e, 0x7f, 0x4e, 0x4b, 0x3d, 0xbf, 0x8d, 0xce, 0x3d, 
  0x93, 0xef, 0xe2, 0xbc, 0xf6, 0x3c, 0xf2, 0xbd, 0x16, 0x08, 0x30, 0x3e, 
  0xa5, 0x7f, 0x36, 0xbe, 0xde, 0x0b, 0x98, 0xbd, 0x88, 0xaa, 0x00, 0xbe, 
  0x1e, 0xb3, 0xd1, 0x3d, 0x9e, 0x6a, 0xf0, 0x3d, 0x41, 0x5e, 0xfc, 0xbc, 
  0x1d, 0xb6, 0x0a, 0x3e, 0x0f, 0x14, 0x78, 0x3c, 0x06, 0x5f, 0x12, 0xbe, 
  0x9a, 0x99, 0x79, 0x3e, 0x7e, 0xe6, 0x18, 0xbd, 0x6c, 0xc0, 0xb0, 0xbd, 
  0xeb, 0xb3, 0xa7, 0xbd, 0xe5, 0xdd, 0x4f, 0xbe, 0x00, 0xca, 0x90, 0xbd, 
  0xbc, 0x86, 0x83, 0x3c, 0x61, 0x43, 0xb3, 0x3d, 0x4a, 0xcf, 0xf0, 0xbd, 
  0xed, 0xce, 0x1c, 0xbd, 0x77, 0x41, 0x30, 0x3e, 0x22, 0x57, 0x67, 0xbe, 
  0xeb, 0xf2, 0x8f, 0x3e, 0xfd, 0x9a, 0xc9, 0x3d, 0xdb, 0x5e, 0x07, 0xbe, 
  0x37, 0x11, 0x7c, 0x3e, 0xc2, 0xb7, 0x52, 0x3e, 0x3c, 0x13, 0x40, 0x3e, 
  0xb8, 0x09, 0x0e, 0xbe, 0x80, 0x69, 0x0d, 0xbd, 0xe1, 0xcc, 0xeb, 0xbd, 
  0xad, 0x67, 0x5f, 0x3e, 0xc3, 0xbc, 0xb9, 0xbd, 0xdb, 0x2d, 0x54, 0xbd, 
  0x62, 0x51, 0x22, 0x3e, 0x6e, 0x06, 0x44, 0xbe, 0x60, 0xb3, 0x41, 0x3e, 
  0xc3, 0x39, 0x0a, 0xbe, 0x2c, 0x26, 0x1f, 0xbe, 0x3d, 0x65, 0xb5, 0x3d, 
  0x00, 0xf1, 0x6b, 0xbd, 0x3b, 0xba, 0xf8, 0xbd, 0x1d, 0x1d, 0x85, 0x3e, 
  0x62, 0x33, 0x03, 0x3e, 0x53, 0x49, 0x46, 0x3e, 0xdf, 0xb5, 0xec, 0x3d, 
  0x07, 0xc6, 0x30, 0xbe, 0xec, 0x75, 0x61, 0x3e, 0x78, 0xca, 0x8e, 0x3e, 
  0x37, 0x67, 0x0e, 0x3d, 0x63, 0x7c, 0x0c, 0xbe, 0x65, 0x1a, 0x1b, 0xbe, 
  0x50, 0x03, 0x13, 0xbe, 0x81, 0x16, 0x11, 0xbe, 0x41, 0x84, 0x35, 0x3e, 
  0x29, 0xd1, 0x82, 0xbe, 0xaa, 0xe8, 0xb0, 0xbc, 0xaf, 0xe9, 0x5d, 0xbd, 
  0x25, 0xda, 0x31, 0x3d, 0x20, 0xfe, 0x35, 0x3e, 0x67, 0x97, 0x1a, 0xbe, 
  0x85, 0xec, 0x56, 0x3e, 0x76, 0xbf, 0x39, 0xbe, 0xe3, 0xab, 0x32, 0xbe, 
  0x8b, 0x22, 0x56, 0xbd, 0x06, 0x98, 0x32, 0xbe, 0xc2, 0x72, 0x97, 0x3e, 
  0x0f, 0x59, 0xa5, 0x3d, 0xd0, 0x0d, 0x3f, 0xbd, 0xce, 0x61, 0x18, 0x3b, 
  0x04, 0x58, 0x26, 0x3e, 0x0f, 0xdd, 0xd0, 0x3d, 0xc6, 0xc1, 0x36, 0xbe, 
  0x49, 0xa6, 0x6c, 0x3e, 0xf3, 0x13, 0x14, 0xbe, 0x8d, 0xb3, 0x92, 0xbb, 
  0x18, 0xa4, 0x1c, 0x3e, 0x73, 0x69, 0x6d, 0xbe, 0x00, 0x69, 0x8e, 0xbc, 
  0xe5, 0x3d, 0xac, 0x3c, 0x7c, 0xa5, 0x29, 0x3e, 0x69, 0x19, 0x76, 0x3e, 
  0xa4, 0x20, 0xa8, 0x3d, 0x84, 0x3d, 0x4f, 0x3e, 0x5b, 0xdc, 0x00, 0x3b, 
  0x3e, 0x24, 0xf1, 0x3c, 0x10, 0xa8, 0x69, 0xbd, 0x9c, 0xbe, 0xa8, 0xbd, 
  0xbc, 0x5a, 0x6e, 0x3d, 0x56, 0xd8, 0x77, 0xbe, 0xf7, 0x4f, 0x3f, 0x3d, 
  0x86, 0x4f, 0x5e, 0xbd, 0xbf, 0x8a, 0x34, 0xbe, 0x3b, 0x19, 0x3b, 0x3d, 
  0x23, 0xfa, 0x7c, 0x3d, 0x3d, 0xc9, 0xd9, 0x3d, 0x9d, 0x3f, 0xbf, 0xbd, 
  0x87, 0xeb, 0x45, 0x3d, 0x9b, 0xc4, 0x7c, 0x3e, 0xc1, 0x26, 0xe3, 0xbb, 
  0x57, 0x3c, 0x61, 0x3b, 0x45, 0x45, 0xbd, 0xbd, 0x4d, 0xf0, 0x56, 0x3e, 
  0x4b, 0xe6, 0x84, 0x3e, 0x1b, 0xe1, 0x12, 0x3e, 0xac, 0x7e, 0x8e, 0xbd, 
  0x8e, 0x48, 0x7d, 0x3d, 0x8e, 0xd8, 0x07, 0x3e, 0xe1, 0xaf, 0x5b, 0xbc, 
  0xb3, 0x33, 0x30, 0x3d, 0xf3, 0xc3, 0x00, 0x3e, 0xcb, 0x7e, 0x52, 0xbe, 
  0xe1, 0x73, 0xf5, 0x3d, 0x3e, 0x94, 0x24, 0x3e, 0x80, 0x01, 0xb8, 0x3d, 
  0x53, 0x02, 0x8f, 0xbd, 0xde, 0xbb, 0x8e, 0xbd, 0x97, 0x8f, 0xa4, 0xb9, 
  0xd9, 0x91, 0xe2, 0x3d, 0x71, 0xf0, 0xdd, 0xbd, 0xca, 0x8c, 0x9f, 0xbd, 
  0xfb, 0xc1, 0x68, 0xbe, 0x33, 0x70, 0xbd, 0x3d, 0x5d, 0x1b, 0x70, 0xbd, 
  0x9a, 0xea, 0x67, 0x3e, 0xf8, 0xb1, 0x3c, 0x3e, 0x14, 0x5a, 0x0f, 0x3e, 
  0x43, 0x4f, 0xdb, 0xbd, 0x32, 0xfe, 0x95, 0x3c, 0x85, 0x8f, 0x92, 0x3e, 
  0x8d, 0x7d, 0x0f, 0xbe, 0x3a, 0xf3, 0xbb, 0xbc, 0x40, 0x7c, 0xa5, 0x3d, 
  0x05, 0x58, 0xfb, 0x3d, 0xdd, 0x6a, 0x56, 0x3e, 0x72, 0xfa, 0x8d, 0xbe, 
  0xd5, 0x26, 0x04, 0x3e, 0x83, 0x2d, 0x8d, 0x3e, 0x98, 0xf7, 0xfa, 0x3c, 
  0x80, 0x10, 0x2b, 0xbe, 0xac, 0xa2, 0x3b, 0x3d, 0x83, 0x4b, 0x99, 0xbe, 
  0x63, 0x3d, 0x9c, 0x3e, 0x66, 0xb4, 0xc4, 0x3c, 0xb3, 0x4b, 0xba, 0xbd, 
  0x73, 0x7c, 0x42, 0x3e, 0x42, 0x00, 0x02, 0xbe, 0x67, 0x53, 0xb4, 0x3d, 
  0x6d, 0xb3, 0x88, 0xbd, 0x01, 0x4e, 0x1c, 0x3e, 0xee, 0xd0, 0x55, 0xbd, 
  0xc6, 0xa7, 0x6e, 0xbe, 0x97, 0xbb, 0x18, 0x3c, 0x68, 0xec, 0x28, 0xbe, 
  0xe2, 0x6e, 0x8c, 0x3e, 0xf1, 0x0d, 0xa4, 0x3d, 0xeb, 0x93, 0x3d, 0x3e, 
  0x35, 0x99, 0xf9, 0x3d, 0xbd, 0xa1, 0xfb, 0xbd, 0xc9, 0x0b, 0x35, 0x3e, 
  0xd2, 0xcd, 0xd4, 0xbd, 0x20, 0xb6, 0xc2, 0x3d, 0x30, 0xb0, 0x60, 0x3e, 
  0xf0, 0x76, 0x9f, 0x3d, 0x6c, 0xe2, 0x08, 0x3e, 0xe3, 0x8c, 0x9b, 0xbc, 
  0xe5, 0x71, 0xed, 0x3d, 0x07, 0xfa, 0x1b, 0x3e, 0xb9, 0x50, 0x0a, 0xbd, 
  0x99, 0xc1, 0xb3, 0x3d, 0x3d, 0x38, 0x71, 0xbe, 0x1c, 0x74, 0x7b, 0xbe, 
  0x54, 0x5c, 0x74, 0xbc, 0x1f, 0xae, 0x40, 0x3d, 0xf0, 0x48, 0xc0, 0x3c, 
  0x68, 0x06, 0xf1, 0xbd, 0x2b, 0x42, 0xfc, 0xbd, 0xc1, 0xd7, 0x22, 0xbe, 
  0x13, 0xcf, 0x10, 0x3d, 0xc2, 0xbb, 0x76, 0x3e, 0x17, 0xe7, 0x71, 0x3d, 
  0x4f, 0xed, 0x9e, 0x3e, 0xd9, 0x5f, 0xd4, 0x3d, 0x7a, 0x92, 0x43, 0xbe, 
  0x8f, 0x09, 0xa4, 0xbd, 0xb2, 0x1e, 0x12, 0xbe, 0x7e, 0xb1, 0xeb, 0x3c, 
  0x87, 0x0f, 0xe1, 0x3d, 0x6d, 0xcd, 0x20, 0xbe, 0x5f, 0x34, 0x78, 0x3e, 
  0x9a, 0xfa, 0x44, 0xbd, 0xe6, 0xcc, 0xa4, 0xbd, 0x7c, 0x5d, 0x9b, 0x3e, 
  0x4a, 0xd6, 0x63, 0xbe, 0x1a, 0xf9, 0x36, 0xbe, 0xae, 0x14, 0x7a, 0xbe, 
  0xfe, 0x75, 0x59, 0xbd, 0xef, 0x89, 0xe3, 0xbc, 0xaa, 0xf5, 0x83, 0x3d, 
  0xd5, 0x5b, 0x51, 0xbe, 0x23, 0x54, 0x23, 0x3e, 0x08, 0xa6, 0x80, 0x3d, 
  0x0e, 0x2c, 0xa0, 0x3d, 0x72, 0x09, 0xe1, 0x3c, 0x46, 0x5a, 0x92, 0xbe, 
  0x8d, 0xae, 0xcc, 0x3d, 0xb5, 0x9a, 0x0c, 0x3e, 0x63, 0x71, 0x42, 0xbe, 
  0xbf, 0xe3, 0xbb, 0xbd, 0xe4, 0xd1, 0x0f, 0x3e, 0x7f, 0xa8, 0x89, 0x3c, 
  0x9e, 0x0d, 0x63, 0xbd, 0x86, 0xe8, 0x05, 0x3e, 0x6d, 0xa1, 0x47, 0xbe, 
  0x7a, 0xf0, 0x20, 0xbe, 0x13, 0xd4, 0xfd, 0x3d, 0x44, 0x3f, 0x71, 0x3e, 
  0xbf, 0xae, 0x3a, 0x3e, 0x29, 0xe0, 0x95, 0xbd, 0xd5, 0x8e, 0x8c, 0xbc, 
  0x0e, 0xea, 0x24, 0xbe, 0xbf, 0xb5, 0xa3, 0xbd, 0xed, 0x14, 0x7a, 0x3e, 
  0xcf, 0x9c, 0x71, 0xbe, 0xf7, 0x60, 0x7a, 0xbe, 0x6d, 0x12, 0xc0, 0xbd, 
  0xde, 0xda, 0x5a, 0x3e, 0x7b, 0x92, 0x29, 0xbd, 0x4c, 0x6b, 0x6c, 0xbe, 
  0xd1, 0x86, 0x5a, 0xbd, 0x70, 0xd5, 0x20, 0xbe, 0xa8, 0xfe, 0x35, 0x3e, 
  0x39, 0x53, 0xbc, 0x3d, 0x27, 0x6a, 0x11, 0x3d, 0xbd, 0xaf, 0xb0, 0xbb, 
  0xb5, 0x07, 0xee, 0x3d, 0x59, 0x95, 0x8f, 0xbd, 0x7d, 0x84, 0x0f, 0x3d, 
  0x4a, 0xe4, 0x39, 0x3e, 0x82, 0x47, 0x71, 0xbe, 0x08, 0x6e, 0xcc, 0xbd, 
  0xc5, 0x48, 0xe9, 0xbd, 0x26, 0x5e, 0xb9, 0xbd, 0xb6, 0x10, 0x71, 0xbe, 
  0xc4, 0x17, 0x25, 0xbe, 0x7e, 0xca, 0xb1, 0x3d, 0x0b, 0xdb, 0x15, 0xbe, 
  0xd4, 0xde, 0x8c, 0x3d, 0x25, 0x96, 0xd7, 0x3c, 0xe9, 0x9b, 0x82, 0x3d, 
  0x86, 0xea, 0x36, 0x3e, 0xde, 0x38, 0x3d, 0xbd, 0x18, 0x67, 0x77, 0x3d, 
  0xe2, 0x82, 0x34, 0x3d, 0x5b, 0x0a, 0xfa, 0xbd, 0xe8, 0xb3, 0x29, 0x3e, 
  0xc3, 0xa9, 0x9d, 0x3e, 0xcf, 0xa8, 0xbd, 0xbd, 0xab, 0x73, 0x41, 0x3d, 
  0x01, 0xfa, 0x45, 0xbe, 0x5d, 0x52, 0x1e, 0x3d, 0x19, 0x19, 0x09, 0x3d, 
  0x5c, 0xd0, 0x41, 0xbe, 0x12, 0xb0, 0x80, 0x3e, 0x4a, 0x7a, 0xc2, 0xbd, 
  0xc4, 0xf5, 0x42, 0x3b, 0xfd, 0x47, 0x2f, 0x3c, 0x52, 0xeb, 0x83, 0x3e, 
  0x8d, 0xeb, 0x60, 0xbe, 0xb9, 0x96, 0x8a, 0xbc, 0xb6, 0xf8, 0xff, 0xff, 
  0x04, 0x00, 0x00, 0x00, 0x20, 0x01, 0x00, 0x00, 0x44, 0x5d, 0x21, 0x3d, 
  0xba, 0x6d, 0xc0, 0xbe, 0xc0, 0xe5, 0xcb, 0x3e, 0xe0, 0x45, 0xe8, 0xbe, 
  0xc7, 0x98, 0xcb, 0x3e, 0x4c, 0x3c, 0xc9, 0x3e, 0x90, 0x05, 0x7b, 0x3e, 
  0xbd, 0xac, 0x3b, 0x3e, 0xba, 0x51, 0xb3, 0xbe, 0xd5, 0xf8, 0xd3, 0x3e, 
  0xdc, 0xb2, 0xa6, 0x3e, 0x02, 0xdd, 0xcf, 0xbe, 0x9c, 0x01, 0xbf, 0x3e, 
  0xa1, 0x5e, 0x0b, 0x3d, 0x5d, 0xd4, 0x98, 0x3e, 0x16, 0xa1, 0x12, 0xbe, 
  0x9e, 0xdc, 0x98, 0x3e, 0xd5, 0x5a, 0xe4, 0xbe, 0x7c, 0x07, 0xb0, 0x3e, 
  0xfd, 0x03, 0x49, 0xbe, 0xe9, 0x8e, 0xaa, 0x3e, 0x31, 0xd0, 0xbf, 0x3e, 
  0x37, 0xad, 0x60, 0x3e, 0x0b, 0x61, 0x1d, 0xbe, 0x55, 0x50, 0xde, 0xbe, 
  0x7d, 0xc9, 0xa5, 0x3e, 0xbf, 0xfc, 0xcb, 0x3e, 0xf2, 0xe9, 0x94, 0x3e, 
  0xe6, 0xe5, 0xcb, 0x3e, 0x09, 0x50, 0xc0, 0x3e, 0x62, 0x16, 0x7a, 0x3e, 
  0x97, 0x30, 0xa7, 0xbe, 0x15, 0x22, 0xa1, 0x3c, 0x10, 0xed, 0xd3, 0x3e, 
  0x19, 0x7e, 0xa6, 0x3e, 0xb5, 0xf1, 0xcb, 0xbe, 0xcf, 0x17, 0xa2, 0xbe, 
  0x03, 0x5d, 0xd2, 0xbe, 0x8d, 0x86, 0x98, 0x3e, 0xaf, 0x37, 0x83, 0xbe, 
  0x51, 0xe9, 0x98, 0x3e, 0x23, 0x32, 0xcf, 0x3d, 0xce, 0x1d, 0xb0, 0x3e, 
  0x8d, 0x39, 0x4e, 0xbd, 0xc1, 0x1e, 0xaa, 0x3e, 0x3f, 0xf2, 0xc0, 0x3e, 
  0x13, 0x59, 0x5f, 0x3e, 0x37, 0x23, 0xf1, 0x3e, 0x73, 0x4d, 0xdb, 0xbe, 
  0x83, 0x90, 0x79, 0xbe, 0xd0, 0xa3, 0xcb, 0x3e, 0xb8, 0x79, 0x95, 0xbe, 
  0xb4, 0xa4, 0xcb, 0x3e, 0x81, 0xde, 0xcb, 0x3e, 0x79, 0xb5, 0x7b, 0x3e, 
  0xd1, 0x56, 0x97, 0xbe, 0xbd, 0xc9, 0xe1, 0xbe, 0xd5, 0xbe, 0xd3, 0x3e, 
  0x6c, 0xcb, 0xa6, 0x3e, 0xba, 0xe9, 0xc5, 0xbe, 0x88, 0xe6, 0xaf, 0xbe, 
  0x07, 0xa8, 0x5b, 0x3e, 0x2d, 0x28, 0x99, 0x3e, 0xe6, 0xce, 0x8e, 0xbe, 
  0xcf, 0x1f, 0x98, 0x3e, 0x24, 0x62, 0xdf, 0xbe, 0xff, 0x6f, 0xb0, 0x3e, 
  0xfe, 0x3e, 0x51, 0x3e, 0x00, 0x06, 0xa9, 0x3e, 0x35, 0x98, 0xc1, 0x3e, 
  0xce, 0xb5, 0x60, 0x3e, 0xa2, 0xa2, 0x6c, 0xbe, 0xe2, 0xf9, 0xff, 0xff, 
  0x04, 0x00, 0x00, 0x00, 0x00, 0x06, 0x00, 0x00, 0x4e, 0x4c, 0x93, 0x3e, 
  0xcc, 0x97, 0xac, 0xbd, 0x34, 0x99, 0x8a, 0xbe, 0x83, 0xc3, 0xcf, 0x3d, 
  0x8e, 0xef, 0x91, 0x3e, 0x8e, 0x86, 0x6f, 0xbd, 0x2a, 0x7b, 0xac, 0xbe, 
  0x4d, 0x29, 0x76, 0x3e, 0x04, 0xdb, 0x82, 0x3e, 0xdf, 0x93, 0x1d, 0xbe, 
  0xf7, 0xdd, 0x1c, 0xbe, 0x20, 0x2d, 0x96, 0xbe, 0x6b, 0x06, 0x88, 0xbe, 
  0x71, 0xf7, 0x2c, 0x3e, 0x61, 0x67, 0x8e, 0x3e, 0x6a, 0x97, 0x04, 0x3d, 
  0xe3, 0xc5, 0x8a, 0xba, 0x36, 0xa1, 0x7e, 0x8a, 0xcf, 0x46, 0x45, 0xbb, 
  0x6a, 0x73, 0xf7, 0x23, 0x49, 0x58, 0xd0, 0xba, 0x35, 0xa8, 0x85, 0xbb, 
  0x03, 0x16, 0x8a, 0xba, 0x78, 0xda, 0x30, 0x0b, 0x28, 0xb7, 0x21, 0x0b, 
  0xb0, 0xd5, 0xae, 0x89, 0xa3, 0x51, 0x8d, 0xbb, 0xb1, 0x36, 0xdb, 0xba, 
  0xdd, 0x82, 0xa3, 0x9f, 0x57, 0x2b, 0x44, 0xb8, 0xbf, 0x89, 0x4b, 0xbb, 
  0x3e, 0x24, 0x9b, 0xbb, 0xf3, 0xf7, 0x76, 0x3e, 0x4a, 0xd3, 0x4f, 0xbe, 
  0xef, 0x46, 0x81, 0x3e, 0x52, 0x58, 0x33, 0x3f, 0x01, 0xa3, 0xe0, 0x3e, 
  0x1a, 0x8c, 0xa5, 0x3e, 0x3d, 0xed, 0x29, 0xbe, 0xdd, 0xb4, 0x46, 0xbe, 
  0x4b, 0x1e, 0x43, 0x3e, 0x70, 0xc1, 0xa3, 0x3c, 0x92, 0x26, 0xb7, 0x3d, 
  0x1e, 0xa0, 0x18, 0x3e, 0xf4, 0x62, 0xd9, 0x3e, 0xea, 0x22, 0xef, 0xbe, 
  0xd5, 0xd7, 0x88, 0x3d, 0x6e, 0xa2, 0x83, 0xbc, 0x21, 0xd2, 0x57, 0xbc, 
  0x6c, 0x3b, 0x13, 0xbc, 0xe8, 0x17, 0x38, 0x3e, 0xa5, 0x24, 0x38, 0x39, 
  0xe1, 0x0d, 0x06, 0xbc, 0xc1, 0xa4, 0x98, 0x3d, 0x0e, 0x80, 0x68, 0xbc, 
  0xac, 0xa5, 0xdf, 0xbc, 0xc8, 0x35, 0x51, 0x8b, 0x48, 0xe2, 0xf4, 0xbb, 
  0x8c, 0x72, 0x98, 0xbd, 0x02, 0xf9, 0x5b, 0xbc, 0xc7, 0xbc, 0x1c, 0xbd, 
  0xd6, 0xb5, 0x3a, 0x3e, 0x75, 0xbf, 0x65, 0xbe, 0xe6, 0xb7, 0xa0, 0xbd, 
  0xff, 0x0d, 0x0c, 0x3e, 0x24, 0xd2, 0xcb, 0xbe, 0xa9, 0xe3, 0x7a, 0x3d, 
  0xed, 0x70, 0x13, 0x3f, 0x41, 0x2f, 0xa5, 0xbd, 0x33, 0x96, 0x87, 0xbd, 
  0xe4, 0x39, 0x34, 0x3d, 0x6c, 0xf8, 0x8b, 0xbe, 0x43, 0xf8, 0x2e, 0x3e, 
  0xa8, 0xc9, 0x86, 0xbe, 0x35, 0xca, 0xa1, 0x3e, 0x94, 0x30, 0xa1, 0x3e, 
  0xc7, 0x86, 0x25, 0x3e, 0xfb, 0x9a, 0x00, 0xbf, 0x9d, 0x7e, 0xe7, 0x3e, 
  0x50, 0x9d, 0x48, 0x3e, 0x9d, 0x48, 0x21, 0x3e, 0x50, 0x47, 0x22, 0xbc, 
  0x0b, 0xd4, 0x16, 0x3e, 0xf4, 0x48, 0x98, 0x3e, 0x9e, 0xe0, 0x26, 0x3e, 
  0x20, 0xda, 0x16, 0x3e, 0x60, 0xa5, 0x19, 0x3e, 0x05, 0x8b, 0x85, 0x3d, 
  0x50, 0x4a, 0xc2, 0x3b, 0xd1, 0x74, 0xb4, 0x3c, 0x2e, 0xac, 0x18, 0x3e, 
  0xad, 0xb3, 0x17, 0x3e, 0x1c, 0x13, 0x18, 0x3e, 0x23, 0x1f, 0x84, 0x3d, 
  0xa6, 0x51, 0x13, 0x3e, 0x0c, 0x79, 0x17, 0x3e, 0x91, 0x74, 0xa6, 0x3e, 
  0xdd, 0x5b, 0xe4, 0xbe, 0xf7, 0x3b, 0xf5, 0x3d, 0xf1, 0x97, 0x0c, 0x3f, 
  0x75, 0x0e, 0xcb, 0x3e, 0x21, 0x9a, 0xce, 0x3c, 0xad, 0x59, 0x9c, 0xbd, 
  0xe0, 0xc6, 0x6e, 0x3d, 0x6e, 0x66, 0x10, 0x3e, 0x34, 0xc7, 0xfd, 0xbd, 
  0x2f, 0xdf, 0xc6, 0x3e, 0x6d, 0xef, 0x9a, 0x3c, 0xfc, 0xcb, 0x16, 0x3f, 
  0x02, 0x2e, 0xe8, 0xbe, 0xa0, 0x30, 0x6a, 0x3e, 0x62, 0x3e, 0x0d, 0x3f, 
  0x0f, 0x02, 0x57, 0x3c, 0x87, 0x19, 0xa0, 0x3d, 0x84, 0x93, 0x3d, 0xbe, 
  0xbe, 0x04, 0x00, 0x3e, 0x9d, 0xaf, 0x1e, 0x3b, 0x26, 0x85, 0x1a, 0xbe, 
  0x77, 0x87, 0x93, 0xbd, 0x22, 0x25, 0xa1, 0x3d, 0x7f, 0x39, 0x9e, 0xbc, 
  0x22, 0x9d, 0x84, 0x3e, 0x76, 0xef, 0x31, 0xbe, 0xa1, 0xce, 0xd9, 0x3c, 
  0xc9, 0xfd, 0x28, 0x3e, 0x54, 0x38, 0x9f, 0xbe, 0x2d, 0x84, 0xa6, 0x3e, 
  0x30, 0x42, 0x4c, 0xbd, 0x5a, 0xfd, 0x0a, 0xbc, 0x12, 0x88, 0xb6, 0x3d, 
  0xc5, 0x2c, 0xa7, 0x3d, 0x7e, 0xdd, 0x98, 0x3d, 0xa8, 0x6e, 0xd0, 0xbb, 
  0x37, 0x8b, 0x49, 0x3e, 0xa1, 0x13, 0xd6, 0x3d, 0x37, 0xbf, 0x36, 0x3e, 
  0xeb, 0xf1, 0x5e, 0x3c, 0x7e, 0xeb, 0x88, 0xbe, 0x79, 0x69, 0x6f, 0xbe, 
  0xb6, 0x33, 0x7c, 0xbd, 0xaa, 0xf6, 0x2d, 0x3e, 0x9e, 0x92, 0x26, 0xbd, 
  0x25, 0xc6, 0x3f, 0xbd, 0xb6, 0x1e, 0x56, 0xbe, 0x5b, 0x2e, 0xc2, 0x3e, 
  0x79, 0x32, 0xd6, 0xbe, 0xfd, 0x11, 0xec, 0x3d, 0x0f, 0x13, 0xdf, 0x3e, 
  0x92, 0x68, 0x9d, 0x3e, 0x5d, 0x2e, 0xb8, 0xbd, 0xd7, 0x99, 0x17, 0x3d, 
  0x38, 0xd2, 0x50, 0xbd, 0xcf, 0xdb, 0x70, 0xbe, 0x2f, 0xa0, 0x53, 0xbe, 
  0x33, 0x36, 0x5b, 0x3e, 0xde, 0x48, 0xb3, 0x3a, 0x9f, 0x4b, 0x39, 0x3e, 
  0x4a, 0xfd, 0x4e, 0x3d, 0x2d, 0x4c, 0x83, 0x3e, 0xb9, 0xfe, 0x04, 0x3d, 
  0x65, 0xd8, 0xfa, 0xbd, 0x42, 0xcc, 0xa6, 0xbe, 0x89, 0xca, 0x8b, 0x3e, 
  0x5f, 0xfd, 0x4c, 0x3f, 0x12, 0x11, 0xf5, 0x3e, 0x2c, 0xa1, 0xa3, 0x3d, 
  0x62, 0x2f, 0xac, 0x3e, 0x4a, 0x9a, 0x1a, 0x3e, 0x8f, 0x0e, 0x75, 0xbe, 
  0x11, 0xe7, 0x16, 0xbe, 0xf7, 0x31, 0xb7, 0x3e, 0xea, 0xfe, 0x9b, 0x3e, 
  0x90, 0xa0, 0x93, 0x3e, 0x17, 0xa5, 0x0a, 0xbf, 0x6d, 0xbc, 0x50, 0xbd, 
  0xf8, 0x35, 0xc4, 0x3d, 0x05, 0x62, 0x01, 0xbd, 0xe5, 0x02, 0xe7, 0xbd, 
  0x8b, 0x1c, 0x00, 0x3e, 0xc0, 0x2c, 0x46, 0xbe, 0xa6, 0xd8, 0x96, 0xbe, 
  0xad, 0x1e, 0x90, 0xbe, 0xb5, 0xfb, 0x6e, 0x3e, 0xe9, 0xf3, 0xb5, 0xbe, 
  0x9c, 0x50, 0x56, 0xbe, 0x63, 0x3b, 0xa4, 0x3d, 0xec, 0x01, 0x99, 0xbe, 
  0xb7, 0xde, 0x6c, 0x3e, 0x23, 0xcc, 0x95, 0x3d, 0x25, 0x16, 0xae, 0x3c, 
  0x66, 0xc7, 0xd6, 0xbd, 0xf8, 0x44, 0x3d, 0x3e, 0xc0, 0x29, 0x37, 0xbe, 
  0x34, 0x24, 0x80, 0x3d, 0xaa, 0xb8, 0x7c, 0x3e, 0x9e, 0xf7, 0x3b, 0x3d, 
  0xa8, 0xee, 0x77, 0x3e, 0x20, 0x0e, 0x88, 0xbe, 0x45, 0xe3, 0x79, 0x3e, 
  0x10, 0xbd, 0x55, 0xbe, 0xa4, 0x66, 0x92, 0xbd, 0x9e, 0x71, 0x34, 0xbe, 
  0xf0, 0x36, 0xcb, 0xbe, 0x88, 0x5c, 0x8f, 0xbe, 0x07, 0x2e, 0x55, 0x3e, 
  0x73, 0x30, 0x69, 0xbe, 0x97, 0xfc, 0x44, 0xbd, 0x1d, 0x51, 0x8a, 0x3e, 
  0x6a, 0x00, 0x72, 0xbe, 0xa0, 0xf7, 0x47, 0xbd, 0x77, 0xdb, 0x96, 0xbe, 
  0x2e, 0x32, 0x7a, 0x3d, 0x0c, 0xf0, 0x53, 0xbe, 0x49, 0x78, 0xd5, 0xbd, 
  0xc1, 0xa4, 0x37, 0xbe, 0x36, 0x63, 0x94, 0x3e, 0x98, 0x98, 0xcf, 0x3d, 
  0xa8, 0x5a, 0xf7, 0xbd, 0xbf, 0x60, 0xae, 0xbd, 0x09, 0x27, 0x4a, 0xbe, 
  0x7a, 0x4b, 0x86, 0xbe, 0x62, 0x28, 0x49, 0x3e, 0x41, 0x1a, 0x03, 0xbe, 
  0xc4, 0xf9, 0x9b, 0x3e, 0xd1, 0x9b, 0x11, 0x3f, 0x64, 0xbc, 0xb3, 0xbe, 
  0xf1, 0xc4, 0x39, 0x3d, 0x87, 0x62, 0x1b, 0x3f, 0xa4, 0x1d, 0x8b, 0x3d, 
  0x82, 0xfa, 0xb2, 0x3d, 0x72, 0x6f, 0x95, 0x3e, 0xdf, 0x2c, 0xe3, 0x3c, 
  0xfa, 0x94, 0xac, 0x3d, 0x39, 0x06, 0x92, 0xbd, 0x38, 0x2e, 0x1e, 0x3e, 
  0x13, 0xf4, 0x72, 0xbd, 0x43, 0x57, 0xb9, 0x3e, 0x82, 0xea, 0xc6, 0xbe, 
  0x75, 0x9a, 0x84, 0x3e, 0x5b, 0x75, 0xb4, 0x3e, 0x03, 0xff, 0x2c, 0x3e, 
  0xfb, 0x4c, 0x49, 0xbc, 0x35, 0x79, 0x34, 0xbe, 0xbb, 0x03, 0x10, 0xbe, 
  0x12, 0xc9, 0x07, 0x3e, 0x74, 0xc8, 0x7f, 0x3e, 0x52, 0x1e, 0x70, 0x3e, 
  0xc4, 0x88, 0x0c, 0x3e, 0x51, 0x5a, 0x8d, 0x3e, 0x04, 0x56, 0xaa, 0x3e, 
  0xfd, 0xc9, 0xa5, 0xbe, 0x76, 0x8f, 0x05, 0x3d, 0x83, 0x2f, 0x60, 0xbe, 
  0x32, 0x39, 0x83, 0x3c, 0xed, 0x2b, 0xdb, 0xbc, 0x85, 0x94, 0xcd, 0xbd, 
  0x08, 0xb3, 0xc3, 0x3d, 0xd8, 0xeb, 0x8e, 0xbe, 0x3e, 0x2a, 0x98, 0x3e, 
  0xe5, 0xaf, 0x60, 0x3e, 0xfb, 0x28, 0x8f, 0x3e, 0xbe, 0x4b, 0xe7, 0x3e, 
  0x3a, 0x28, 0xfa, 0x3e, 0x9c, 0xba, 0x30, 0xbe, 0xbe, 0x2d, 0x85, 0xbd, 
  0x83, 0xc0, 0x84, 0x3e, 0x37, 0xec, 0x13, 0x3e, 0x0b, 0x96, 0xa4, 0xbd, 
  0xc3, 0x4e, 0x77, 0x3e, 0x6f, 0xca, 0x06, 0xbf, 0x46, 0x58, 0x59, 0x3d, 
  0xe0, 0x98, 0x89, 0x3e, 0xa0, 0xe1, 0x93, 0x3e, 0xd5, 0x1a, 0x8e, 0x3e, 
  0x15, 0x56, 0xb5, 0xbe, 0x7b, 0xde, 0x82, 0xbb, 0xd2, 0x0b, 0x55, 0x3e, 
  0x04, 0xad, 0x09, 0xbe, 0x44, 0x7a, 0x83, 0x3d, 0x56, 0xc8, 0x10, 0x3e, 
  0xc9, 0x75, 0x4d, 0xbd, 0xe3, 0xfe, 0x15, 0xbc, 0x2a, 0x2b, 0xe3, 0x3d, 
  0x91, 0xfc, 0x53, 0xbe, 0xdc, 0x4c, 0xa7, 0xbe, 0x2c, 0x3b, 0x98, 0xbe, 
  0x0f, 0xd2, 0x5a, 0x3e, 0x88, 0x20, 0x0e, 0xbe, 0xf4, 0xd1, 0x12, 0x3f, 
  0xc3, 0x42, 0xf8, 0xbd, 0x79, 0x02, 0xe9, 0x3d, 0x24, 0xd8, 0xb7, 0x3e, 
  0x8d, 0xba, 0xb6, 0xbd, 0x57, 0x7a, 0xf5, 0x3e, 0x85, 0xda, 0x01, 0x3f, 
  0xf7, 0x8c, 0x3f, 0x3d, 0xd7, 0xb5, 0x8c, 0x3c, 0xbc, 0xdc, 0x08, 0x3b, 
  0x26, 0x61, 0xc8, 0xbd, 0xaa, 0xa7, 0xe1, 0xbc, 0xc8, 0x0b, 0x3d, 0x3e, 
  0x21, 0xe0, 0xeb, 0xbe, 0x3d, 0x86, 0x49, 0xbe, 0x90, 0x2f, 0xe6, 0x3e, 
  0x22, 0x39, 0x20, 0xbd, 0x38, 0xba, 0x07, 0x3c, 0x1f, 0x3f, 0x83, 0xbd, 
  0x94, 0x84, 0x8e, 0xb4, 0xb1, 0x15, 0x19, 0xbb, 0x4a, 0x10, 0x1a, 0xbb, 
  0x1c, 0x82, 0xa4, 0xbb, 0x8f, 0xd8, 0xb9, 0xbc, 0x81, 0x92, 0xc5, 0x36, 
  0xb5, 0xd7, 0x5c, 0xb6, 0xe4, 0xd9, 0xbd, 0xbc, 0x96, 0x50, 0x17, 0x3d, 
  0xdb, 0x40, 0x21, 0xbb, 0xfc, 0x90, 0x88, 0xbb, 0x9b, 0xa2, 0xf1, 0xbb, 
  0x42, 0xaf, 0x72, 0x3d, 0x66, 0xba, 0x08, 0xbe, 0x68, 0x6c, 0xdc, 0xbe, 
  0x1e, 0x36, 0x7f, 0x3e, 0xc3, 0x4a, 0xa2, 0x3e, 0x6f, 0xe1, 0x94, 0xba, 
  0x6c, 0x00, 0x5e, 0x3e, 0xc2, 0xbc, 0xb6, 0x3d, 0x14, 0xd4, 0x5a, 0x3d, 
  0xb6, 0x63, 0x1a, 0xbe, 0xbd, 0x8e, 0x42, 0x3e, 0x03, 0x95, 0xa6, 0x3c, 
  0x97, 0xbd, 0xde, 0x3e, 0xef, 0xe9, 0xaa, 0x3e, 0x02, 0xf7, 0x0a, 0xbe, 
  0x8a, 0xc4, 0xb0, 0x3e, 0x49, 0x11, 0x91, 0x3e, 0x32, 0xbe, 0x24, 0x3e, 
  0x35, 0x2b, 0x58, 0xbe, 0xe9, 0x70, 0x4f, 0x3e, 0x71, 0xa6, 0x09, 0x3e, 
  0x4a, 0xfc, 0xfb, 0x3d, 0x97, 0x35, 0x90, 0x3e, 0x28, 0xa3, 0xc9, 0x3e, 
  0x0c, 0x71, 0xb2, 0x3d, 0x14, 0x99, 0x12, 0xbe, 0xe6, 0x68, 0x18, 0x3e, 
  0xdd, 0xa0, 0x9c, 0x3e, 0x58, 0xdc, 0x56, 0x3e, 0x30, 0xeb, 0x03, 0x3d, 
  0x85, 0x77, 0x59, 0xbe, 0xda, 0x71, 0x80, 0xbd, 0x70, 0xc2, 0x3b, 0x3d, 
  0x6e, 0x96, 0x1e, 0x3f, 0xb9, 0x6b, 0x16, 0xbf, 0xab, 0x60, 0xc5, 0x3d, 
  0x81, 0xdb, 0x0e, 0x3f, 0x36, 0x12, 0x14, 0x3f, 0x6f, 0xd5, 0x09, 0x3f, 
  0x48, 0x35, 0xaf, 0x3d, 0xed, 0xd0, 0xc0, 0x3e, 0x76, 0x5d, 0x71, 0x3d, 
  0x85, 0xe1, 0xab, 0x3e, 0x92, 0x48, 0x0b, 0xbe, 0x4e, 0xcb, 0x04, 0x3f, 
  0x2a, 0xd3, 0x24, 0x3f, 0x8c, 0x74, 0x2d, 0xbf, 0x57, 0xa6, 0xad, 0x3e, 
  0x71, 0x5b, 0xc9, 0x3d, 0x90, 0x10, 0xb4, 0xad, 0xa9, 0x5e, 0x9a, 0x8b, 
  0x49, 0xb6, 0xc4, 0x19, 0x09, 0x72, 0xa1, 0x24, 0x8d, 0x35, 0xbd, 0x8e, 
  0x8a, 0xa9, 0x84, 0xb4, 0x02, 0x1e, 0xe9, 0x36, 0x4a, 0x87, 0x6b, 0x3b, 
  0xae, 0x02, 0xb1, 0x37, 0x67, 0xd3, 0xb2, 0x32, 0x06, 0x27, 0x40, 0xbc, 
  0x96, 0xf1, 0xc1, 0x8b, 0xcc, 0x66, 0x55, 0x37, 0xb3, 0x3e, 0x9b, 0x9b, 
  0x9b, 0x57, 0x25, 0x8b, 0x42, 0x71, 0x93, 0xb5, 0xee, 0xff, 0xff, 0xff, 
  0x04, 0x00, 0x00, 0x00, 0x04, 0x00, 0x00, 0x00, 0xfd, 0xff, 0xff, 0xff, 
  0x00, 0x00, 0x06, 0x00, 0x08, 0x00, 0x04, 0x00, 0x06, 0x00, 0x00, 0x00, 
  0x04, 0x00, 0x00, 0x00, 0x04, 0x00, 0x00, 0x00, 0x01, 0x00, 0x00, 0x00, 
  0x58, 0xf2, 0xff, 0xff, 0x5c, 0xf2, 0xff, 0xff, 0x0f, 0x00, 0x00, 0x00, 
  0x4d, 0x4c, 0x49, 0x52, 0x20, 0x43, 0x6f, 0x6e, 0x76, 0x65, 0x72, 0x74, 
  0x65, 0x64, 0x2e, 0x00, 0x01, 0x00, 0x00, 0x00, 0x14, 0x00, 0x00, 0x00, 
  0x00, 0x00, 0x0e, 0x00, 0x18, 0x00, 0x14, 0x00, 0x10, 0x00, 0x0c, 0x00, 
  0x08, 0x00, 0x04, 0x00, 0x0e, 0x00, 0x00, 0x00, 0x14, 0x00, 0x00, 0x00, 
  0x1c, 0x00, 0x00, 0x00, 0x54, 0x02, 0x00, 0x00, 0x58, 0x02, 0x00, 0x00, 
  0x5c, 0x02, 0x00, 0x00, 0x04, 0x00, 0x00, 0x00, 0x6d, 0x61, 0x69, 0x6e, 
  0x00, 0x00, 0x00, 0x00, 0x09, 0x00, 0x00, 0x00, 0x0c, 0x02, 0x00, 0x00, 
  0xa8, 0x01, 0x00, 0x00, 0x70, 0x01, 0x00, 0x00, 0x34, 0x01, 0x00, 0x00, 
  0xec, 0x00, 0x00, 0x00, 0xc4, 0x00, 0x00, 0x00, 0x90, 0x00, 0x00, 0x00, 
  0x4c, 0x00, 0x00, 0x00, 0x04, 0x00, 0x00, 0x00, 0x86, 0xfe, 0xff, 0xff, 
  0x14, 0x00, 0x00, 0x00, 0x00, 0x00, 0x00, 0x08, 0x10, 0x00, 0x00, 0x00, 
  0x14, 0x00, 0x00, 0x00, 0x04, 0x00, 0x00, 0x00, 0xf0, 0xf2, 0xff, 0xff, 
  0x01, 0x00, 0x00, 0x00, 0x15, 0x00, 0x00, 0x00, 0x03, 0x00, 0x00, 0x00, 
  0x14, 0x00, 0x00, 0x00, 0x04, 0x00, 0x00, 0x00, 0x09, 0x00, 0x00, 0x00, 
  0x00, 0x00, 0x0e, 0x00, 0x1a, 0x00, 0x14, 0x00, 0x10, 0x00, 0x0c, 0x00, 
  0x0b, 0x00, 0x04, 0x00, 0x0e, 0x00, 0x00, 0x00, 0x1c, 0x00, 0x00, 0x00, 
  0x00, 0x00, 0x00, 0x08, 0x1c, 0x00, 0x00, 0x00, 0x20, 0x00, 0x00, 0x00, 
  0x04, 0x00, 0x00, 0x00, 0x00, 0x00, 0x06, 0x00, 0x08, 0x00, 0x07, 0x00, 
  0x06, 0x00, 0x00, 0x00, 0x00, 0x00, 0x00, 0x01, 0x01, 0x00, 0x00, 0x00, 
  0x14, 0x00, 0x00, 0x00, 0x03, 0x00, 0x00, 0x00, 0x13, 0x00, 0x00, 0x00, 
  0x03, 0x00, 0x00, 0x00, 0x06, 0x00, 0x00, 0x00, 0x0a, 0xff, 0xff, 0xff, 
  0x14, 0x00, 0x00, 0x00, 0x00, 0x00, 0x00, 0x1b, 0x10, 0x00, 0x00, 0x00, 
  0x14, 0x00, 0x00, 0x00, 0x03, 0x00, 0x00, 0x00, 0x74, 0xf3, 0xff, 0xff, 
  0x01, 0x00, 0x00, 0x00, 0x13, 0x00, 0x00, 0x00, 0x02, 0x00, 0x00, 0x00, 
  0x12, 0x00, 0x00, 0x00, 0x01, 0x00, 0x00, 0x00, 0x6a, 0xff, 0xff, 0xff, 
  0x0c, 0x00, 0x00, 0x00, 0x10, 0x00, 0x00, 0x00, 0x02, 0x00, 0x00, 0x00, 
  0x01, 0x00, 0x00, 0x00, 0x12, 0x00, 0x00, 0x00, 0x02, 0x00, 0x00, 0x00, 
  0x11, 0x00, 0x00, 0x00, 0x0a, 0x00, 0x00, 0x00, 0x5e, 0xff, 0xff, 0xff, 
  0x14, 0x00, 0x00, 0x00, 0x00, 0x00, 0x00, 0x01, 0x20, 0x00, 0x00, 0x00, 
  0x24, 0x00, 0x00, 0x00, 0x01, 0x00, 0x00, 0x00, 0x50, 0xff, 0xff, 0xff, 
  0x00, 0x00, 0x00, 0x01, 0x01, 0x00, 0x00, 0x00, 0x01, 0x00, 0x00, 0x00, 
  0x00, 0x00, 0x00, 0x01, 0x01, 0x00, 0x00, 0x00, 0x11, 0x00, 0x00, 0x00, 
  0x03, 0x00, 0x00, 0x00, 0x10, 0x00, 0x00, 0x00, 0x0c, 0x00, 0x00, 0x00, 
  0x07, 0x00, 0x00, 0x00, 0x42, 0xff, 0xff, 0xff, 0x10, 0x00, 0x00, 0x00, 
  0x00, 0x00, 0x00, 0x34, 0x0c, 0x00, 0x00, 0x00, 0x10, 0x00, 0x00, 0x00, 
  0x08, 0xf4, 0xff, 0xff, 0x01, 0x00, 0x00, 0x00, 0x10, 0x00, 0x00, 0x00, 
  0x02, 0x00, 0x00, 0x00, 0x0f, 0x00, 0x00, 0x00, 0x02, 0x00, 0x00, 0x00, 
  0x00, 0x00, 0x0a, 0x00, 0x10, 0x00, 0x0c, 0x00, 0x08, 0x00, 0x04, 0x00, 
  0x0a, 0x00, 0x00, 0x00, 0x0c, 0x00, 0x00, 0x00, 0x10, 0x00, 0x00, 0x00, 
  0x02, 0x00, 0x00, 0x00, 0x01, 0x00, 0x00, 0x00, 0x0f, 0x00, 0x00, 0x00, 
  0x02, 0x00, 0x00, 0x00, 0x0e, 0x00, 0x00, 0x00, 0x0b, 0x00, 0x00, 0x00, 
  0x00, 0x00, 0x0e, 0x00, 0x18, 0x00, 0x14, 0x00, 0x10, 0x00, 0x0c, 0x00, 
  0x0b, 0x00, 0x04, 0x00, 0x0e, 0x00, 0x00, 0x00, 0x20, 0x00, 0x00, 0x00, 
  0x00, 0x00, 0x00, 0x01, 0x2c, 0x00, 0x00, 0x00, 0x30, 0x00, 0x00, 0x00, 
  0x01, 0x00, 0x00, 0x00, 0x0c, 0x00, 0x14, 0x00, 0x13, 0x00, 0x0c, 0x00, 
  0x08, 0x00, 0x07, 0x00, 0x0c, 0x00, 0x00, 0x00, 0x00, 0x00, 0x00, 0x01, 
  0x01, 0x00, 0x00, 0x00, 0x01, 0x00, 0x00, 0x00, 0x00, 0x00, 0x00, 0x01, 
  0x01, 0x00, 0x00, 0x00, 0x0e, 0x00, 0x00, 0x00, 0x03, 0x00, 0x00, 0x00, 
  0x0d, 0x00, 0x00, 0x00, 0x05, 0x00, 0x00, 0x00, 0x08, 0x00, 0x00, 0x00, 
  0x00, 0x00, 0x0e, 0x00, 0x14, 0x00, 0x00, 0x00, 0x10, 0x00, 0x0c, 0x00, 
  0x0b, 0x00, 0x04, 0x00, 0x0e, 0x00, 0x00, 0x00, 0x10, 0x00, 0x00, 0x00, 
  0x00, 0x00, 0x00, 0x34, 0x0c, 0x00, 0x00, 0x00, 0x10, 0x00, 0x00, 0x00, 
  0xd4, 0xf4, 0xff, 0xff, 0x01, 0x00, 0x00, 0x00, 0x0d, 0x00, 0x00, 0x00, 
  0x02, 0x00, 0x00, 0x00, 0x00, 0x00, 0x00, 0x00, 0x02, 0x00, 0x00, 0x00, 
  0x01, 0x00, 0x00, 0x00, 0x15, 0x00, 0x00, 0x00, 0x01, 0x00, 0x00, 0x00, 
  0x00, 0x00, 0x00, 0x00, 0x16, 0x00, 0x00, 0x00, 0xd4, 0x0a, 0x00, 0x00, 
  0x80, 0x0a, 0x00, 0x00, 0x2c, 0x0a, 0x00, 0x00, 0xec, 0x09, 0x00, 0x00, 
  0x94, 0x09, 0x00, 0x00, 0x4c, 0x09, 0x00, 0x00, 0x10, 0x09, 0x00, 0x00, 
  0xd4, 0x08, 0x00, 0x00, 0x98, 0x08, 0x00, 0x00, 0x5c, 0x08, 0x00, 0x00, 
  0x1c, 0x08, 0x00, 0x00, 0xd8, 0x07, 0x00, 0x00, 0xac, 0x06, 0x00, 0x00, 
  0x24, 0x06, 0x00, 0x00, 0x04, 0x05, 0x00, 0x00, 0x14, 0x04, 0x00, 0x00, 
  0x8c, 0x03, 0x00, 0x00, 0x6c, 0x02, 0x00, 0x00, 0x7c, 0x01, 0x00, 0x00, 
  0x10, 0x01, 0x00, 0x00, 0x60, 0x00, 0x00, 0x00, 0x04, 0x00, 0x00, 0x00, 
  0x9a, 0xf5, 0xff, 0xff, 0x00, 0x00, 0x00, 0x01, 0x14, 0x00, 0x00, 0x00, 
  0x1c, 0x00, 0x00, 0x00, 0x1c, 0x00, 0x00, 0x00, 0x16, 0x00, 0x00, 0x00, 
  0x34, 0x00, 0x00, 0x00, 0x02, 0x00, 0x00, 0x00, 0xff, 0xff, 0xff, 0xff, 
  0x03, 0x00, 0x00, 0x00, 0x80, 0xf5, 0xff, 0xff, 0x1b, 0x00, 0x00, 0x00, 
  0x53, 0x74, 0x61, 0x74, 0x65, 0x66, 0x75, 0x6c, 0x50, 0x61, 0x72, 0x74, 
  0x69, 0x74, 0x69, 0x6f, 0x6e, 0x65, 0x64, 0x43, 0x61, 0x6c, 0x6c, 0x5f, 
  0x31, 0x3a, 0x30, 0x00, 0x02, 0x00, 0x00, 0x00, 0x01, 0x00, 0x00, 0x00, 
  0x03, 0x00, 0x00, 0x00, 0xf2, 0xf5, 0xff, 0xff, 0x00, 0x00, 0x00, 0x01, 
  0x14, 0x00, 0x00, 0x00, 0x1c, 0x00, 0x00, 0x00, 0x1c, 0x00, 0x00, 0x00, 
  0x15, 0x00, 0x00, 0x00, 0x88, 0x00, 0x00, 0x00, 0x02, 0x00, 0x00, 0x00, 
  0xff, 0xff, 0xff, 0xff, 0x18, 0x00, 0x00, 0x00, 0xd8, 0xf5, 0xff, 0xff, 
  0x6d, 0x00, 0x00, 0x00, 0x43, 0x4e, 0x4e, 0x31, 0x44, 0x5f, 0x54, 0x65, 
  0x6d, 0x70, 0x65, 0x72, 0x61, 0x74, 0x75, 0x72, 0x65, 0x5f, 0x31, 0x2f, 
  0x64, 0x65, 0x6e, 0x73, 0x65, 0x5f, 0x31, 0x5f, 0x31, 0x2f, 0x4d, 0x61, 
  0x74, 0x4d, 0x75, 0x6c, 0x3b, 0x43, 0x4e, 0x4e, 0x31, 0x44, 0x5f, 0x54, 
  0x65, 0x6d, 0x70, 0x65, 0x72, 0x61, 0x74, 0x75, 0x72, 0x65, 0x5f, 0x31, 
  0x2f, 0x64, 0x65, 0x6e, 0x73, 0x65, 0x5f, 0x31, 0x5f, 0x31, 0x2f, 0x52, 
  0x65, 0x6c, 0x75, 0x3b, 0x43, 0x4e, 0x4e, 0x31, 0x44, 0x5f, 0x54, 0x65, 
  0x6d, 0x70, 0x65, 0x72, 0x61, 0x74, 0x75, 0x72, 0x65, 0x5f, 0x31, 0x2f, 
  0x64, 0x65, 0x6e, 0x73, 0x65, 0x5f, 0x31, 0x5f, 0x31, 0x2f, 0x42, 0x69, 
  0x61, 0x73, 0x41, 0x64, 0x64, 0x00, 0x00, 0x00, 0x02, 0x00, 0x00, 0x00, 
  0x01, 0x00, 0x00, 0x00, 0x18, 0x00, 0x00, 0x00, 0x9e, 0xf6, 0xff, 0xff, 
  0x00, 0x00, 0x00, 0x01, 0x14, 0x00, 0x00, 0x00, 0x1c, 0x00, 0x00, 0x00, 
  0x1c, 0x00, 0x00, 0x00, 0x14, 0x00, 0x00, 0x00, 0x44, 0x00, 0x00, 0x00, 
  0x02, 0x00, 0x00, 0x00, 0xff, 0xff, 0xff, 0xff, 0x10, 0x00, 0x00, 0x00, 
  0x84, 0xf6, 0xff, 0xff, 0x2a, 0x00, 0x00, 0x00, 0x43, 0x4e, 0x4e, 0x31, 
  0x44, 0x5f, 0x54, 0x65, 0x6d, 0x70, 0x65, 0x72, 0x61, 0x74, 0x75, 0x72, 
  0x65, 0x5f, 0x31, 0x2f, 0x67, 0x6c, 0x6f, 0x62, 0x61, 0x6c, 0x5f, 0x61, 
  0x76, 0x67, 0x5f, 0x70, 0x6f, 0x6f, 0x6c, 0x5f, 0x31, 0x2f, 0x4d, 0x65, 
  0x61, 0x6e, 0x00, 0x00, 0x02, 0x00, 0x00, 0x00, 0x01, 0x00, 0x00, 0x00, 
  0x10, 0x00, 0x00, 0x00, 0x06, 0xf7, 0xff, 0xff, 0x00, 0x00, 0x00, 0x01, 
  0x14, 0x00, 0x00, 0x00, 0x20, 0x00, 0x00, 0x00, 0x20, 0x00, 0x00, 0x00, 
  0x13, 0x00, 0x00, 0x00, 0xc4, 0x00, 0x00, 0x00, 0x03, 0x00, 0x00, 0x00, 
  0xff, 0xff, 0xff, 0xff, 0x06, 0x00, 0x00, 0x00, 0x10, 0x00, 0x00, 0x00, 
  0xf0, 0xf6, 0xff, 0xff, 0xa4, 0x00, 0x00, 0x00, 0x43, 0x4e, 0x4e, 0x31, 
  0x44, 0x5f, 0x54, 0x65, 0x6d, 0x70, 0x65, 0x72, 0x61, 0x74, 0x75, 0x72, 
  0x65, 0x5f, 0x31, 0x2f, 0x63, 0x6f, 0x6e, 0x76, 0x31, 0x64, 0x5f, 0x32, 
  0x5f, 0x31, 0x2f, 0x52, 0x65, 0x6c, 0x75, 0x3b, 0x43, 0x4e, 0x4e, 0x31, 
  0x44, 0x5f, 0x54, 0x65, 0x6d, 0x70, 0x65, 0x72, 0x61, 0x74, 0x75, 0x72, 
  0x65, 0x5f, 0x31, 0x2f, 0x63, 0x6f, 0x6e, 0x76, 0x31, 0x64, 0x5f, 0x32, 
  0x5f, 0x31, 0x2f, 0x42, 0x69, 0x61, 0x73, 0x41, 0x64, 0x64, 0x3b, 0x43, 
  0x4e, 0x4e, 0x31, 0x44, 0x5f, 0x54, 0x65, 0x6d, 0x70, 0x65, 0x72, 0x61, 
  0x74, 0x75, 0x72, 0x65, 0x5f, 0x31, 0x2f, 0x63, 0x6f, 0x6e, 0x76, 0x31, 
  0x64, 0x5f, 0x32, 0x5f, 0x31, 0x2f, 0x63, 0x6f, 0x6e, 0x76, 0x6f, 0x6c, 
  0x75, 0x74, 0x69, 0x6f, 0x6e, 0x2f, 0x53, 0x71, 0x75, 0x65, 0x65, 0x7a, 
  0x65, 0x3b, 0x43, 0x4e, 0x4e, 0x31, 0x44, 0x5f, 0x54, 0x65, 0x6d, 0x70, 
  0x65, 0x72, 0x61, 0x74, 0x75, 0x72, 0x65, 0x5f, 0x31, 0x2f, 0x63, 0x6f, 
  0x6e, 0x76, 0x31, 0x64, 0x5f, 0x32, 0x5f, 0x31, 0x2f, 0x53, 0x71, 0x75, 
  0x65, 0x65, 0x7a, 0x65, 0x00, 0x00, 0x00, 0x00, 0x03, 0x00, 0x00, 0x00, 
  0x01, 0x00, 0x00, 0x00, 0x06, 0x00, 0x00, 0x00, 0x10, 0x00, 0x00, 0x00, 
  0xf2, 0xf7, 0xff, 0xff, 0x00, 0x00, 0x00, 0x01, 0x14, 0x00, 0x00, 0x00, 
  0x24, 0x00, 0x00, 0x00, 0x24, 0x00, 0x00, 0x00, 0x12, 0x00, 0x00, 0x00, 
  0xf0, 0x00, 0x00, 0x00, 0x04, 0x00, 0x00, 0x00, 0xff, 0xff, 0xff, 0xff, 
  0x01, 0x00, 0x00, 0x00, 0x06, 0x00, 0x00, 0x00, 0x10, 0x00, 0x00, 0x00, 
  0xe0, 0xf7, 0xff, 0xff, 0xcf, 0x00, 0x00, 0x00, 0x43, 0x4e, 0x4e, 0x31, 
  0x44, 0x5f, 0x54, 0x65, 0x6d, 0x70, 0x65, 0x72, 0x61, 0x74, 0x75, 0x72, 
  0x65, 0x5f, 0x31, 0x2f, 0x63, 0x6f, 0x6e, 0x76, 0x31, 0x64, 0x5f, 0x32, 
  0x5f, 0x31, 0x2f, 0x52, 0x65, 0x6c, 0x75, 0x3b, 0x43, 0x4e, 0x4e, 0x31, 
  0x44, 0x5f, 0x54, 0x65, 0x6d, 0x70, 0x65, 0x72, 0x61, 0x74, 0x75, 0x72, 
  0x65, 0x5f, 0x31, 0x2f, 0x63, 0x6f, 0x6e, 0x76, 0x31, 0x64, 0x5f, 0x32, 
  0x5f, 0x31, 0x2f, 0x42, 0x69, 0x61, 0x73, 0x41, 0x64, 0x64, 0x3b, 0x43, 
  0x4e, 0x4e, 0x31, 0x44, 0x5f, 0x54, 0x65, 0x6d, 0x70, 0x65, 0x72, 0x61, 
  0x74, 0x75, 0x72, 0x65, 0x5f, 0x31, 0x2f, 0x63, 0x6f, 0x6e, 0x76, 0x31, 
  0x64, 0x5f, 0x32, 0x5f, 0x31, 0x2f, 0x63, 0x6f, 0x6e, 0x76, 0x6f, 0x6c, 
  0x75, 0x74, 0x69, 0x6f, 0x6e, 0x2f, 0x53, 0x71, 0x75, 0x65, 0x65, 0x7a, 
  0x65, 0x3b, 0x43, 0x4e, 0x4e, 0x31, 0x44, 0x5f, 0x54, 0x65, 0x6d, 0x70, 
  0x65, 0x72, 0x61, 0x74, 0x75, 0x72, 0x65, 0x5f, 0x31, 0x2f, 0x63, 0x6f, 
  0x6e, 0x76, 0x31, 0x64, 0x5f, 0x32, 0x5f, 0x31, 0x2f, 0x53, 0x71, 0x75, 
  0x65, 0x65, 0x7a, 0x65, 0x3b, 0x43, 0x4e, 0x4e, 0x31, 0x44, 0x5f, 0x54, 
  0x65, 0x6d, 0x70, 0x65, 0x72, 0x61, 0x74, 0x75, 0x72, 0x65, 0x5f, 0x31, 
  0x2f, 0x63, 0x6f, 0x6e, 0x76, 0x31, 0x64, 0x5f, 0x32, 0x5f, 0x31, 0x2f, 
  0x63, 0x6f, 0x6e, 0x76, 0x6f, 0x6c, 0x75, 0x74, 0x69, 0x6f, 0x6e, 0x00, 
  0x04, 0x00, 0x00, 0x00, 0x01, 0x00, 0x00, 0x00, 0x01, 0x00, 0x00, 0x00, 
  0x06, 0x00, 0x00, 0x00, 0x10, 0x00, 0x00, 0x00, 0x0e, 0xf9, 0xff, 0xff, 
  0x00, 0x00, 0x00, 0x01, 0x14, 0x00, 0x00, 0x00, 0x24, 0x00, 0x00, 0x00, 
  0x24, 0x00, 0x00, 0x00, 0x11, 0x00, 0x00, 0x00, 0x58, 0x00, 0x00, 0x00, 
  0x04, 0x00, 0x00, 0x00, 0xff, 0xff, 0xff, 0xff, 0x01, 0x00, 0x00, 0x00, 
  0x08, 0x00, 0x00, 0x00, 0x18, 0x00, 0x00, 0x00, 0xfc, 0xf8, 0xff, 0xff, 
  0x35, 0x00, 0x00, 0x00, 0x43, 0x4e, 0x4e, 0x31, 0x44, 0x5f, 0x54, 0x65, 
  0x6d, 0x70, 0x65, 0x72, 0x61, 0x74, 0x75, 0x72, 0x65, 0x5f, 0x31, 0x2f, 
  0x63, 0x6f, 0x6e, 0x76, 0x31, 0x64, 0x5f, 0x32, 0x5f, 0x31, 0x2f, 0x63, 
  0x6f, 0x6e, 0x76, 0x6f, 0x6c, 0x75, 0x74, 0x69, 0x6f, 0x6e, 0x2f, 0x45, 
  0x78, 0x70, 0x61, 0x6e, 0x64, 0x44, 0x69, 0x6d, 0x73, 0x00, 0x00, 0x00, 
  0x04, 0x00, 0x00, 0x00, 0x01, 0x00, 0x00, 0x00, 0x01, 0x00, 0x00, 0x00, 
  0x08, 0x00, 0x00, 0x00, 0x18, 0x00, 0x00, 0x00, 0x92, 0xf9, 0xff, 0xff, 
  0x00, 0x00, 0x00, 0x01, 0x14, 0x00, 0x00, 0x00, 0x20, 0x00, 0x00, 0x00, 
  0x20, 0x00, 0x00, 0x00, 0x10, 0x00, 0x00, 0x00, 0xc4, 0x00, 0x00, 0x00, 
  0x03, 0x00, 0x00, 0x00, 0xff, 0xff, 0xff, 0xff, 0x08, 0x00, 0x00, 0x00, 
  0x18, 0x00, 0x00, 0x00, 0x7c, 0xf9, 0xff, 0xff, 0xa4, 0x00, 0x00, 0x00, 
  0x43, 0x4e, 0x4e, 0x31, 0x44, 0x5f, 0x54, 0x65, 0x6d, 0x70, 0x65, 0x72, 
  0x61, 0x74, 0x75, 0x72, 0x65, 0x5f, 0x31, 0x2f, 0x63, 0x6f, 0x6e, 0x76, 
  0x31, 0x64, 0x5f, 0x31, 0x5f, 0x31, 0x2f, 0x52, 0x65, 0x6c, 0x75, 0x3b, 
  0x43, 0x4e, 0x4e, 0x31, 0x44, 0x5f, 0x54, 0x65, 0x6d, 0x70, 0x65, 0x72, 
  0x61, 0x74, 0x75, 0x72, 0x65, 0x5f, 0x31, 0x2f, 0x63, 0x6f, 0x6e, 0x76, 
  0x31, 0x64, 0x5f, 0x31, 0x5f, 0x31, 0x2f, 0x42, 0x69, 0x61, 0x73, 0x41, 
  0x64, 0x64, 0x3b, 0x43, 0x4e, 0x4e, 0x31, 0x44, 0x5f, 0x54, 0x65, 0x6d, 
  0x70, 0x65, 0x72, 0x61, 0x74, 0x75, 0x72, 0x65, 0x5f, 0x31, 0x2f, 0x63, 
  0x6f, 0x6e, 0x76, 0x31, 0x64, 0x5f, 0x31, 0x5f, 0x31, 0x2f, 0x63, 0x6f, 
  0x6e, 0x76, 0x6f, 0x6c, 0x75, 0x74, 0x69, 0x6f, 0x6e, 0x2f, 0x53, 0x71, 
  0x75, 0x65, 0x65, 0x7a, 0x65, 0x3b, 0x43, 0x4e, 0x4e, 0x31, 0x44, 0x5f, 
  0x54, 0x65, 0x6d, 0x70, 0x65, 0x72, 0x61, 0x74, 0x75, 0x72, 0x65, 0x5f, 
  0x31, 0x2f, 0x63, 0x6f, 0x6e, 0x76, 0x31, 0x64, 0x5f, 0x31, 0x5f, 0x31, 
  0x2f, 0x53, 0x71, 0x75, 0x65, 0x65, 0x7a, 0x65, 0x00, 0x00, 0x00, 0x00, 
  0x03, 0x00, 0x00, 0x00, 0x01, 0x00, 0x00, 0x00, 0x08, 0x00, 0x00, 0x00, 
  0x18, 0x00, 0x00, 0x00, 0x7e, 0xfa, 0xff, 0xff, 0x00, 0x00, 0x00, 0x01, 
  0x14, 0x00, 0x00, 0x00, 0x24, 0x00, 0x00, 0x00, 0x24, 0x00, 0x00, 0x00, 
  0x0f, 0x00, 0x00, 0x00, 0xf0, 0x00, 0x00, 0x00, 0x04, 0x00, 0x00, 0x00, 
  0xff, 0xff, 0xff, 0xff, 0x01, 0x00, 0x00, 0x00, 0x08, 0x00, 0x00, 0x00, 
  0x18, 0x00, 0x00, 0x00, 0x6c, 0xfa, 0xff, 0xff, 0xcf, 0x00, 0x00, 0x00, 
  0x43, 0x4e, 0x4e, 0x31, 0x44, 0x5f, 0x54, 0x65, 0x6d, 0x70, 0x65, 0x72, 
  0x61, 0x74, 0x75, 0x72, 0x65, 0x5f, 0x31, 0x2f, 0x63, 0x6f, 0x6e, 0x76, 
  0x31, 0x64, 0x5f, 0x31, 0x5f, 0x31, 0x2f, 0x52, 0x65, 0x6c, 0x75, 0x3b, 
  0x43, 0x4e, 0x4e, 0x31, 0x44, 0x5f, 0x54, 0x65, 0x6d, 0x70, 0x65, 0x72, 
  0x61, 0x74, 0x75, 0x72, 0x65, 0x5f, 0x31, 0x2f, 0x63, 0x6f, 0x6e, 0x76, 
  0x31, 0x64, 0x5f, 0x31, 0x5f, 0x31, 0x2f, 0x42, 0x69, 0x61, 0x73, 0x41, 
  0x64, 0x64, 0x3b, 0x43, 0x4e, 0x4e, 0x31, 0x44, 0x5f, 0x54, 0x65, 0x6d, 
  0x70, 0x65, 0x72, 0x61, 0x74, 0x75, 0x72, 0x65, 0x5f, 0x31, 0x2f, 0x63, 
  0x6f, 0x6e, 0x76, 0x31, 0x64, 0x5f, 0x31, 0x5f, 0x31, 0x2f, 0x63, 0x6f, 
  0x6e, 0x76, 0x6f, 0x6c, 0x75, 0x74, 0x69, 0x6f, 0x6e, 0x2f, 0x53, 0x71, 
  0x75, 0x65, 0x65, 0x7a, 0x65, 0x3b, 0x43, 0x4e, 0x4e, 0x31, 0x44, 0x5f, 
  0x54, 0x65, 0x6d, 0x70, 0x65, 0x72, 0x61, 0x74, 0x75, 0x72, 0x65, 0x5f, 
  0x31, 0x2f, 0x63, 0x6f, 0x6e, 0x76, 0x31, 0x64, 0x5f, 0x31, 0x5f, 0x31, 
  0x2f, 0x53, 0x71, 0x75, 0x65, 0x65, 0x7a, 0x65, 0x3b, 0x43, 0x4e, 0x4e, 
  0x31, 0x44, 0x5f, 0x54, 0x65, 0x6d, 0x70, 0x65, 0x72, 0x61, 0x74, 0x75, 
  0x72, 0x65, 0x5f, 0x31, 0x2f, 0x63, 0x6f, 0x6e, 0x76, 0x31, 0x64, 0x5f, 
  0x31, 0x5f, 0x31, 0x2f, 0x63, 0x6f, 0x6e, 0x76, 0x6f, 0x6c, 0x75, 0x74, 
  0x69, 0x6f, 0x6e, 0x00, 0x04, 0x00, 0x00, 0x00, 0x01, 0x00, 0x00, 0x00, 
  0x01, 0x00, 0x00, 0x00, 0x08, 0x00, 0x00, 0x00, 0x18, 0x00, 0x00, 0x00, 
  0x9a, 0xfb, 0xff, 0xff, 0x00, 0x00, 0x00, 0x01, 0x14, 0x00, 0x00, 0x00, 
  0x24, 0x00, 0x00, 0x00, 0x24, 0x00, 0x00, 0x00, 0x0e, 0x00, 0x00, 0x00, 
  0x58, 0x00, 0x00, 0x00, 0x04, 0x00, 0x00, 0x00, 0xff, 0xff, 0xff, 0xff, 
  0x01, 0x00, 0x00, 0x00, 0x0a, 0x00, 0x00, 0x00, 0x04, 0x00, 0x00, 0x00, 
  0x88, 0xfb, 0xff, 0xff, 0x35, 0x00, 0x00, 0x00, 0x43, 0x4e, 0x4e, 0x31, 
  0x44, 0x5f, 0x54, 0x65, 0x6d, 0x70, 0x65, 0x72, 0x61, 0x74, 0x75, 0x72, 
  0x65, 0x5f, 0x31, 0x2f, 0x63, 0x6f, 0x6e, 0x76, 0x31, 0x64, 0x5f, 0x31, 
  0x5f, 0x31, 0x2f, 0x63, 0x6f, 0x6e, 0x76, 0x6f, 0x6c, 0x75, 0x74, 0x69, 
  0x6f, 0x6e, 0x2f, 0x45, 0x78, 0x70, 0x61, 0x6e, 0x64, 0x44, 0x69, 0x6d, 
  0x73, 0x00, 0x00, 0x00, 0x04, 0x00, 0x00, 0x00, 0x01, 0x00, 0x00, 0x00, 
  0x01, 0x00, 0x00, 0x00, 0x0a, 0x00, 0x00, 0x00, 0x04, 0x00, 0x00, 0x00, 
  0x6e, 0xfc, 0xff, 0xff, 0x00, 0x00, 0x00, 0x01, 0x20, 0x00, 0x00, 0x00, 
  0xf0, 0x00, 0x00, 0x00, 0x0d, 0x00, 0x00, 0x00, 0x00, 0x00, 0x00, 0x09, 
  0xfc, 0x00, 0x00, 0x00, 0x0c, 0x00, 0x0c, 0x00, 0x00, 0x00, 0x00, 0x00, 
  0x08, 0x00, 0x04, 0x00, 0x0c, 0x00, 0x00, 0x00, 0x08, 0x00, 0x00, 0x00, 
  0x88, 0x00, 0x00, 0x00, 0x10, 0x00, 0x00, 0x00, 0x00, 0x00, 0x00, 0x00, 
  0x00, 0x00, 0x00, 0x00, 0x00, 0x00, 0x00, 0x00, 0x00, 0x00, 0x00, 0x00, 
  0x00, 0x00, 0x00, 0x00, 0x00, 0x00, 0x00, 0x00, 0x00, 0x00, 0x00, 0x00, 
  0x00, 0x00, 0x00, 0x00, 0x00, 0x00, 0x00, 0x00, 0x00, 0x00, 0x00, 0x00, 
  0x00, 0x00, 0x00, 0x00, 0x00, 0x00, 0x00, 0x00, 0x00, 0x00, 0x00, 0x00, 
  0x00, 0x00, 0x00, 0x00, 0x00, 0x00, 0x00, 0x00, 0x00, 0x00, 0x00, 0x00, 
  0x00, 0x00, 0x00, 0x00, 0x00, 0x00, 0x00, 0x00, 0x00, 0x00, 0x00, 0x00, 
  0x00, 0x00, 0x00, 0x00, 0x00, 0x00, 0x00, 0x00, 0x00, 0x00, 0x00, 0x00, 
  0x00, 0x00, 0x00, 0x00, 0x00, 0x00, 0x00, 0x00, 0x00, 0x00, 0x00, 0x00, 
  0x00, 0x00, 0x00, 0x00, 0x00, 0x00, 0x00, 0x00, 0x00, 0x00, 0x00, 0x00, 
  0x00, 0x00, 0x00, 0x00, 0x00, 0x00, 0x00, 0x00, 0x00, 0x00, 0x00, 0x00, 
  0x00, 0x00, 0x00, 0x00, 0x10, 0x00, 0x00, 0x00, 0xce, 0x93, 0x42, 0x3b, 
  0x51, 0x23, 0x83, 0x3b, 0x11, 0x86, 0x2c, 0x3b, 0x80, 0x57, 0x2e, 0x3b, 
  0xc5, 0x9e, 0x4c, 0x3b, 0xb3, 0xa2, 0x13, 0x3b, 0xf2, 0xb1, 0x36, 0x3b, 
  0x47, 0x78, 0x00, 0x3b, 0x01, 0x78, 0xf5, 0x3a, 0xe1, 0x22, 0xef, 0x3a, 
  0x5b, 0xd9, 0x30, 0x3b, 0xc3, 0xea, 0x3f, 0x3b, 0x68, 0x6a, 0x66, 0x3b, 
  0x08, 0x2d, 0x6f, 0x3b, 0x54, 0x49, 0x2f, 0x3b, 0xdc, 0x59, 0x27, 0x3b, 
  0x11, 0x00, 0x00, 0x00, 0x74, 0x66, 0x6c, 0x2e, 0x70, 0x73, 0x65, 0x75, 
  0x64, 0x6f, 0x5f, 0x71, 0x63, 0x6f, 0x6e, 0x73, 0x74, 0x00, 0x00, 0x00, 
  0x04, 0x00, 0x00, 0x00, 0x10, 0x00, 0x00, 0x00, 0x01, 0x00, 0x00, 0x00, 
  0x03, 0x00, 0x00, 0x00, 0x18, 0x00, 0x00, 0x00, 0x96, 0xfd, 0xff, 0xff, 
  0x00, 0x00, 0x00, 0x01, 0x14, 0x00, 0x00, 0x00, 0x14, 0x00, 0x00, 0x00, 
  0x0c, 0x00, 0x00, 0x00, 0x00, 0x00, 0x00, 0x02, 0x20, 0x00, 0x00, 0x00, 
  0x20, 0xfd, 0xff, 0xff, 0x10, 0x00, 0x00, 0x00, 0x61, 0x72, 0x69, 0x74, 
  0x68, 0x2e, 0x63, 0x6f, 0x6e, 0x73, 0x74, 0x61, 0x6e, 0x74, 0x31, 0x30, 
  0x00, 0x00, 0x00, 0x00, 0x01, 0x00, 0x00, 0x00, 0x03, 0x00, 0x00, 0x00, 
  0xd6, 0xfd, 0xff, 0xff, 0x00, 0x00, 0x00, 0x01, 0x14, 0x00, 0x00, 0x00, 
  0x14, 0x00, 0x00, 0x00, 0x0b, 0x00, 0x00, 0x00, 0x00, 0x00, 0x00, 0x02, 
  0x1c, 0x00, 0x00, 0x00, 0x60, 0xfd, 0xff, 0xff, 0x0f, 0x00, 0x00, 0x00, 
  0x61, 0x72, 0x69, 0x74, 0x68, 0x2e, 0x63, 0x6f, 0x6e, 0x73, 0x74, 0x61, 
  0x6e, 0x74, 0x39, 0x00, 0x01, 0x00, 0x00, 0x00, 0x03, 0x00, 0x00, 0x00, 
  0x9e, 0xfe, 0xff, 0xff, 0x00, 0x00, 0x00, 0x01, 0x10, 0x00, 0x00, 0x00, 
  0x10, 0x00, 0x00, 0x00, 0x0a, 0x00, 0x00, 0x00, 0x1c, 0x00, 0x00, 0x00, 
  0x98, 0xfd, 0xff, 0xff, 0x0f, 0x00, 0x00, 0x00, 0x61, 0x72, 0x69, 0x74, 
  0x68, 0x2e, 0x63, 0x6f, 0x6e, 0x73, 0x74, 0x61, 0x6e, 0x74, 0x38, 0x00, 
  0x01, 0x00, 0x00, 0x00, 0x03, 0x00, 0x00, 0x00, 0xd6, 0xfe, 0xff, 0xff, 
  0x00, 0x00, 0x00, 0x01, 0x10, 0x00, 0x00, 0x00, 0x10, 0x00, 0x00, 0x00, 
  0x09, 0x00, 0x00, 0x00, 0x1c, 0x00, 0x00, 0x00, 0xd0, 0xfd, 0xff, 0xff, 
  0x0f, 0x00, 0x00, 0x00, 0x61, 0x72, 0x69, 0x74, 0x68, 0x2e, 0x63, 0x6f, 
  0x6e, 0x73, 0x74, 0x61, 0x6e, 0x74, 0x37, 0x00, 0x01, 0x00, 0x00, 0x00, 
  0x18, 0x00, 0x00, 0x00, 0x0e, 0xff, 0xff, 0xff, 0x00, 0x00, 0x00, 0x01, 
  0x10, 0x00, 0x00, 0x00, 0x10, 0x00, 0x00, 0x00, 0x08, 0x00, 0x00, 0x00, 
  0x1c, 0x00, 0x00, 0x00, 0x08, 0xfe, 0xff, 0xff, 0x0f, 0x00, 0x00, 0x00, 
  0x61, 0x72, 0x69, 0x74, 0x68, 0x2e, 0x63, 0x6f, 0x6e, 0x73, 0x74, 0x61, 
  0x6e, 0x74, 0x36, 0x00, 0x01, 0x00, 0x00, 0x00, 0x10, 0x00, 0x00, 0x00, 
  0x46, 0xff, 0xff, 0xff, 0x00, 0x00, 0x00, 0x01, 0x10, 0x00, 0x00, 0x00, 
  0x10, 0x00, 0x00, 0x00, 0x07, 0x00, 0x00, 0x00, 0x1c, 0x00, 0x00, 0x00, 
  0x40, 0xfe, 0xff, 0xff, 0x0f, 0x00, 0x00, 0x00, 0x61, 0x72, 0x69, 0x74, 
  0x68, 0x2e, 0x63, 0x6f, 0x6e, 0x73, 0x74, 0x61, 0x6e, 0x74, 0x35, 0x00, 
  0x01, 0x00, 0x00, 0x00, 0x18, 0x00, 0x00, 0x00, 0x7e, 0xff, 0xff, 0xff, 
  0x00, 0x00, 0x00, 0x01, 0x10, 0x00, 0x00, 0x00, 0x10, 0x00, 0x00, 0x00, 
  0x06, 0x00, 0x00, 0x00, 0x1c, 0x00, 0x00, 0x00, 0x78, 0xfe, 0xff, 0xff, 
  0x0f, 0x00, 0x00, 0x00, 0x61, 0x72, 0x69, 0x74, 0x68, 0x2e, 0x63, 0x6f, 
  0x6e, 0x73, 0x74, 0x61, 0x6e, 0x74, 0x34, 0x00, 0x04, 0x00, 0x00, 0x00, 
  0x18, 0x00, 0x00, 0x00, 0x01, 0x00, 0x00, 0x00, 0x03, 0x00, 0x00, 0x00, 
  0x04, 0x00, 0x00, 0x00, 0xc2, 0xff, 0xff, 0xff, 0x00, 0x00, 0x00, 0x01, 
  0x10, 0x00, 0x00, 0x00, 0x10, 0x00, 0x00, 0x00, 0x05, 0x00, 0x00, 0x00, 
  0x1c, 0x00, 0x00, 0x00, 0xbc, 0xfe, 0xff, 0xff, 0x0f, 0x00, 0x00, 0x00, 
  0x61, 0x72, 0x69, 0x74, 0x68, 0x2e, 0x63, 0x6f, 0x6e, 0x73, 0x74, 0x61, 
  0x6e, 0x74, 0x33, 0x00, 0x02, 0x00, 0x00, 0x00, 0x03, 0x00, 0x00, 0x00, 
  0x18, 0x00, 0x00, 0x00, 0x00, 0x00, 0x16, 0x00, 0x18, 0x00, 0x14, 0x00, 
  0x00, 0x00, 0x10, 0x00, 0x0c, 0x00, 0x08, 0x00, 0x00, 0x00, 0x00, 0x00, 
  0x00, 0x00, 0x07, 0x00, 0x16, 0x00, 0x00, 0x00, 0x00, 0x00, 0x00, 0x01, 
  0x10, 0x00, 0x00, 0x00, 0x10, 0x00, 0x00, 0x00, 0x04, 0x00, 0x00, 0x00, 
  0x1c, 0x00, 0x00, 0x00, 0x10, 0xff, 0xff, 0xff, 0x0f, 0x00, 0x00, 0x00, 
  0x61, 0x72, 0x69, 0x74, 0x68, 0x2e, 0x63, 0x6f, 0x6e, 0x73, 0x74, 0x61, 
  0x6e, 0x74, 0x32, 0x00, 0x02, 0x00, 0x00, 0x00, 0x18, 0x00, 0x00, 0x00, 
  0x10, 0x00, 0x00, 0x00, 0xc6, 0xff, 0xff, 0xff, 0x00, 0x00, 0x00, 0x01, 
  0x14, 0x00, 0x00, 0x00, 0x14, 0x00, 0x00, 0x00, 0x03, 0x00, 0x00, 0x00, 
  0x00, 0x00, 0x00, 0x02, 0x1c, 0x00, 0x00, 0x00, 0x50, 0xff, 0xff, 0xff, 
  0x0f, 0x00, 0x00, 0x00, 0x61, 0x72, 0x69, 0x74, 0x68, 0x2e, 0x63, 0x6f, 
  0x6e, 0x73, 0x74, 0x61, 0x6e, 0x74, 0x31, 0x00, 0x00, 0x00, 0x00, 0x00, 
  0x00, 0x00, 0x16, 0x00, 0x1c, 0x00, 0x18, 0x00, 0x17, 0x00, 0x10, 0x00, 
  0x0c, 0x00, 0x08, 0x00, 0x00, 0x00, 0x00, 0x00, 0x00, 0x00, 0x07, 0x00, 
  0x16, 0x00, 0x00, 0x00, 0x00, 0x00, 0x00, 0x01, 0x14, 0x00, 0x00, 0x00, 
  0x14, 0x00, 0x00, 0x00, 0x02, 0x00, 0x00, 0x00, 0x00, 0x00, 0x00, 0x02, 
  0x1c, 0x00, 0x00, 0x00, 0xa0, 0xff, 0xff, 0xff, 0x0e, 0x00, 0x00, 0x00, 
  0x61, 0x72, 0x69, 0x74, 0x68, 0x2e, 0x63, 0x6f, 0x6e, 0x73, 0x74, 0x61, 
  0x6e, 0x74, 0x00, 0x00, 0x00, 0x00, 0x00, 0x00, 0x00, 0x00, 0x16, 0x00, 
  0x1c, 0x00, 0x18, 0x00, 0x00, 0x00, 0x14, 0x00, 0x10, 0x00, 0x0c, 0x00, 
  0x00, 0x00, 0x00, 0x00, 0x08, 0x00, 0x07, 0x00, 0x16, 0x00, 0x00, 0x00, 
  0x00, 0x00, 0x00, 0x01, 0x14, 0x00, 0x00, 0x00, 0x24, 0x00, 0x00, 0x00, 
  0x24, 0x00, 0x00, 0x00, 0x01, 0x00, 0x00, 0x00, 0x40, 0x00, 0x00, 0x00, 
  0x03, 0x00, 0x00, 0x00, 0xff, 0xff, 0xff, 0xff, 0x0a, 0x00, 0x00, 0x00, 
  0x04, 0x00, 0x00, 0x00, 0x04, 0x00, 0x04, 0x00, 0x04, 0x00, 0x00, 0x00, 
  0x1e, 0x00, 0x00, 0x00, 0x73, 0x65, 0x72, 0x76, 0x69, 0x6e, 0x67, 0x5f, 
  0x64, 0x65, 0x66, 0x61, 0x75, 0x6c, 0x74, 0x5f, 0x6b, 0x65, 0x72, 0x61, 
  0x73, 0x5f, 0x74, 0x65, 0x6e, 0x73, 0x6f, 0x72, 0x3a, 0x30, 0x00, 0x00, 
  0x03, 0x00, 0x00, 0x00, 0x01, 0x00, 0x00, 0x00, 0x0a, 0x00, 0x00, 0x00, 
  0x04, 0x00, 0x00, 0x00, 0x05, 0x00, 0x00, 0x00, 0x60, 0x00, 0x00, 0x00, 
  0x40, 0x00, 0x00, 0x00, 0x24, 0x00, 0x00, 0x00, 0x14, 0x00, 0x00, 0x00, 
  0x04, 0x00, 0x00, 0x00, 0xc0, 0xff, 0xff, 0xff, 0x09, 0x00, 0x00, 0x00, 
  0x00, 0x00, 0x00, 0x09, 0xcc, 0xff, 0xff, 0xff, 0x28, 0x00, 0x00, 0x00, 
  0x00, 0x00, 0x00, 0x28, 0xd8, 0xff, 0xff, 0xff, 0x16, 0x00, 0x00, 0x00, 
  0x00, 0x00, 0x00, 0x16, 0x0c, 0x00, 0x10, 0x00, 0x0f, 0x00, 0x00, 0x00, 
  0x08, 0x00, 0x04, 0x00, 0x0c, 0x00, 0x00, 0x00, 0x03, 0x00, 0x00, 0x00, 
  0x05, 0x00, 0x00, 0x00, 0x00, 0x00, 0x00, 0x03, 0x0c, 0x00, 0x0c, 0x00, 
  0x0b, 0x00, 0x00, 0x00, 0x00, 0x00, 0x04, 0x00, 0x0c, 0x00, 0x00, 0x00, 
  0x46, 0x00, 0x00, 0x00, 0x00, 0x00, 0x00, 0x46, 
};
const unsigned int temperature_model_len = 8792;

// Model information
#define WINDOW_SIZE 10
#define NUM_FEATURES 4
#define NUM_HORIZONS 3

// Feature names
const char* feature_names[] = {
    "Temp_AHT20_C",
    "Umid_AHT20_pct",
    "Temp_BMP280_C",
    "Press_BMP280_hPa"
};

// Horizon names
const char* horizon_names[] = {
    "5 minutes",
    "10 minutes",
    "15 minutes"
};

#endif // TEMPERATURE_MODEL_H
